#include "magic_wand_model_data.h"


// We need to keep the data array aligned on some architectures.

#ifdef __has_attribute

#define HAVE_ATTRIBUTE(x) __has_attribute(x)

#else

#define HAVE_ATTRIBUTE(x) 0

#endif

#if HAVE_ATTRIBUTE(aligned) || (defined(__GNUC__) && !defined(__clang__))

#define DATA_ALIGN_ATTRIBUTE __attribute__((aligned(4)))

#else

#define DATA_ALIGN_ATTRIBUTE

#endif


const unsigned char g_magic_wand_model_data[] DATA_ALIGN_ATTRIBUTE = {

  // Paste the data of the char array in `src/model.cc` here


  0x08, 0x00, 0x00, 0x00, 0x54, 0x46, 0x4c, 0x33, 0x62, 0xff, 0xff, 0xff,
  0x03, 0x00, 0x00, 0x00, 0x10, 0x00, 0x00, 0x00, 0x24, 0x00, 0x00, 0x00,
  0x78, 0x00, 0x00, 0x00, 0x24, 0x00, 0x00, 0x00, 0x05, 0x00, 0x00, 0x00,
  0x78, 0x05, 0x00, 0x00, 0xb0, 0x04, 0x00, 0x00, 0xe0, 0x02, 0x00, 0x00,
  0x60, 0x02, 0x00, 0x00, 0x54, 0x01, 0x00, 0x00, 0x01, 0x00, 0x00, 0x00,
  0x78, 0x00, 0x00, 0x00, 0x13, 0x00, 0x00, 0x00, 0x18, 0x30, 0x00, 0x00,
  0x14, 0x30, 0x00, 0x00, 0x20, 0x2f, 0x00, 0x00, 0xa8, 0x2e, 0x00, 0x00,
  0x3c, 0x2e, 0x00, 0x00, 0xec, 0x11, 0x00, 0x00, 0x98, 0x10, 0x00, 0x00,
  0xbc, 0x0e, 0x00, 0x00, 0x60, 0x06, 0x00, 0x00, 0xfc, 0x05, 0x00, 0x00,
  0x78, 0x05, 0x00, 0x00, 0xec, 0x2f, 0x00, 0x00, 0xe8, 0x2f, 0x00, 0x00,
  0xe4, 0x2f, 0x00, 0x00, 0xe0, 0x2f, 0x00, 0x00, 0xdc, 0x2f, 0x00, 0x00,
  0xd8, 0x2f, 0x00, 0x00, 0xd4, 0x2f, 0x00, 0x00, 0xd0, 0x2f, 0x00, 0x00,
  0x0f, 0x00, 0x00, 0x00, 0x4d, 0x4c, 0x49, 0x52, 0x20, 0x43, 0x6f, 0x6e,
  0x76, 0x65, 0x72, 0x74, 0x65, 0x64, 0x2e, 0x00, 0x00, 0x00, 0x0e, 0x00,
  0x18, 0x00, 0x04, 0x00, 0x08, 0x00, 0x0c, 0x00, 0x10, 0x00, 0x14, 0x00,
  0x0e, 0x00, 0x00, 0x00, 0x14, 0x00, 0x00, 0x00, 0x5c, 0x00, 0x00, 0x00,
  0x60, 0x00, 0x00, 0x00, 0x64, 0x00, 0x00, 0x00, 0x84, 0x00, 0x00, 0x00,
  0x12, 0x00, 0x00, 0x00, 0x48, 0x2f, 0x00, 0x00, 0xe4, 0x2e, 0x00, 0x00,
  0x3c, 0x2e, 0x00, 0x00, 0xd8, 0x2d, 0x00, 0x00, 0x70, 0x2d, 0x00, 0x00,
  0x1c, 0x11, 0x00, 0x00, 0xc0, 0x0f, 0x00, 0x00, 0xe4, 0x0d, 0x00, 0x00,
  0xa0, 0x05, 0x00, 0x00, 0x3c, 0x05, 0x00, 0x00, 0xb0, 0x04, 0x00, 0x00,
  0xe8, 0x03, 0x00, 0x00, 0x38, 0x03, 0x00, 0x00, 0xa4, 0x02, 0x00, 0x00,
  0x10, 0x02, 0x00, 0x00, 0x90, 0x01, 0x00, 0x00, 0xfc, 0x00, 0x00, 0x00,
  0x80, 0x00, 0x00, 0x00, 0x01, 0x00, 0x00, 0x00, 0x00, 0x00, 0x00, 0x00,
  0x01, 0x00, 0x00, 0x00, 0x11, 0x00, 0x00, 0x00, 0x08, 0x00, 0x00, 0x00,
  0x1c, 0x04, 0x00, 0x00, 0x58, 0x03, 0x00, 0x00, 0xc8, 0x02, 0x00, 0x00,
  0x24, 0x02, 0x00, 0x00, 0xac, 0x01, 0x00, 0x00, 0x10, 0x01, 0x00, 0x00,
  0x94, 0x00, 0x00, 0x00, 0x10, 0x00, 0x00, 0x00, 0x04, 0x00, 0x00, 0x00,
  0x6d, 0x61, 0x69, 0x6e, 0x00, 0x00, 0x00, 0x00, 0x8e, 0xff, 0xff, 0xff,
  0x00, 0x00, 0x00, 0x09, 0x04, 0x00, 0x00, 0x00, 0x1c, 0x00, 0x00, 0x00,
  0x10, 0x00, 0x00, 0x00, 0x04, 0x00, 0x00, 0x00, 0x0a, 0xd2, 0xff, 0xff,
  0x00, 0x00, 0x80, 0x3f, 0x01, 0x00, 0x00, 0x00, 0x11, 0x00, 0x00, 0x00,
  0x01, 0x00, 0x00, 0x00, 0x10, 0x00, 0x00, 0x00, 0xf6, 0xfb, 0xff, 0xff,
  0x00, 0x00, 0x00, 0x19, 0x01, 0x00, 0x00, 0x00, 0x8a, 0xd1, 0xff, 0xff,
  0x10, 0x00, 0x00, 0x00, 0x12, 0x00, 0x00, 0x00, 0x14, 0x00, 0x00, 0x00,
  0x20, 0x00, 0x00, 0x00, 0x02, 0x00, 0x00, 0x00, 0x01, 0x00, 0x00, 0x00,
  0x04, 0x00, 0x00, 0x00, 0x08, 0x00, 0x00, 0x00, 0x49, 0x64, 0x65, 0x6e,
  0x74, 0x69, 0x74, 0x79, 0x00, 0x00, 0x00, 0x00, 0xc4, 0xd1, 0xff, 0xff,
  0x00, 0x00, 0x0e, 0x00, 0x18, 0x00, 0x08, 0x00, 0x0c, 0x00, 0x10, 0x00,
  0x07, 0x00, 0x14, 0x00, 0x0e, 0x00, 0x00, 0x00, 0x00, 0x00, 0x00, 0x08,
  0x03, 0x00, 0x00, 0x00, 0x18, 0x00, 0x00, 0x00, 0x0c, 0x00, 0x00, 0x00,
  0x04, 0x00, 0x00, 0x00, 0x98, 0xd1, 0xff, 0xff, 0x01, 0x00, 0x00, 0x00,
  0x10, 0x00, 0x00, 0x00, 0x03, 0x00, 0x00, 0x00, 0x0f, 0x00, 0x00, 0x00,
  0x05, 0x00, 0x00, 0x00, 0x02, 0x00, 0x00, 0x00, 0x02, 0xd2, 0xff, 0xff,
  0x10, 0x00, 0x00, 0x00, 0x11, 0x00, 0x00, 0x00, 0x14, 0x00, 0x00, 0x00,
  0x30, 0x00, 0x00, 0x00, 0x02, 0x00, 0x00, 0x00, 0x01, 0x00, 0x00, 0x00,
  0x04, 0x00, 0x00, 0x00, 0x1a, 0x00, 0x00, 0x00, 0x73, 0x65, 0x71, 0x75,
  0x65, 0x6e, 0x74, 0x69, 0x61, 0x6c, 0x2f, 0x64, 0x65, 0x6e, 0x73, 0x65,
  0x5f, 0x31, 0x2f, 0x42, 0x69, 0x61, 0x73, 0x41, 0x64, 0x64, 0x00, 0x00,
  0xf4, 0xd1, 0xff, 0xff, 0xd6, 0xfd, 0xff, 0xff, 0x00, 0x00, 0x00, 0x08,
  0x03, 0x00, 0x00, 0x00, 0x24, 0x00, 0x00, 0x00, 0x18, 0x00, 0x00, 0x00,
  0x0c, 0x00, 0x00, 0x00, 0x00, 0x00, 0x06, 0x00, 0x08, 0x00, 0x07, 0x00,
  0x06, 0x00, 0x00, 0x00, 0x00, 0x00, 0x00, 0x01, 0x01, 0x00, 0x00, 0x00,
  0x0f, 0x00, 0x00, 0x00, 0x03, 0x00, 0x00, 0x00, 0x0e, 0x00, 0x00, 0x00,
  0x04, 0x00, 0x00, 0x00, 0x01, 0x00, 0x00, 0x00, 0xfe, 0xfc, 0xff, 0xff,
  0x00, 0x00, 0x00, 0x09, 0x01, 0x00, 0x00, 0x00, 0x92, 0xd2, 0xff, 0xff,
  0x10, 0x00, 0x00, 0x00, 0x10, 0x00, 0x00, 0x00, 0x14, 0x00, 0x00, 0x00,
  0x2c, 0x00, 0x00, 0x00, 0x02, 0x00, 0x00, 0x00, 0x01, 0x00, 0x00, 0x00,
  0x10, 0x00, 0x00, 0x00, 0x15, 0x00, 0x00, 0x00, 0x73, 0x65, 0x71, 0x75,
  0x65, 0x6e, 0x74, 0x69, 0x61, 0x6c, 0x2f, 0x64, 0x65, 0x6e, 0x73, 0x65,
  0x2f, 0x52, 0x65, 0x6c, 0x75, 0x00, 0x00, 0x00, 0xd8, 0xd2, 0xff, 0xff,
  0x00, 0x00, 0x0a, 0x00, 0x10, 0x00, 0x04, 0x00, 0x08, 0x00, 0x0c, 0x00,
  0x0a, 0x00, 0x00, 0x00, 0x02, 0x00, 0x00, 0x00, 0x10, 0x00, 0x00, 0x00,
  0x04, 0x00, 0x00, 0x00, 0x01, 0x00, 0x00, 0x00, 0x0e, 0x00, 0x00, 0x00,
  0x02, 0x00, 0x00, 0x00, 0x0d, 0x00, 0x00, 0x00, 0x03, 0x00, 0x00, 0x00,
  0x7a, 0xfd, 0xff, 0xff, 0x00, 0x00, 0x00, 0x16, 0x01, 0x00, 0x00, 0x00,
  0x0e, 0xd3, 0xff, 0xff, 0x10, 0x00, 0x00, 0x00, 0x0f, 0x00, 0x00, 0x00,
  0x14, 0x00, 0x00, 0x00, 0x30, 0x00, 0x00, 0x00, 0x02, 0x00, 0x00, 0x00,
  0x01, 0x00, 0x00, 0x00, 0x70, 0x00, 0x00, 0x00, 0x1a, 0x00, 0x00, 0x00,
  0x73, 0x65, 0x71, 0x75, 0x65, 0x6e, 0x74, 0x69, 0x61, 0x6c, 0x2f, 0x66,
  0x6c, 0x61, 0x74, 0x74, 0x65, 0x6e, 0x2f, 0x52, 0x65, 0x73, 0x68, 0x61,
  0x70, 0x65, 0x00, 0x00, 0x00, 0xd3, 0xff, 0xff, 0xe2, 0xfe, 0xff, 0xff,
  0x00, 0x00, 0x00, 0x05, 0x01, 0x00, 0x00, 0x00, 0x38, 0x00, 0x00, 0x00,
  0x2c, 0x00, 0x00, 0x00, 0x14, 0x00, 0x00, 0x00, 0x00, 0x00, 0x0e, 0x00,
  0x14, 0x00, 0x00, 0x00, 0x10, 0x00, 0x0c, 0x00, 0x08, 0x00, 0x04, 0x00,
  0x0e, 0x00, 0x00, 0x00, 0x03, 0x00, 0x00, 0x00, 0x01, 0x00, 0x00, 0x00,
  0x03, 0x00, 0x00, 0x00, 0x01, 0x00, 0x00, 0x00, 0x01, 0x00, 0x00, 0x00,
  0x0d, 0x00, 0x00, 0x00, 0x01, 0x00, 0x00, 0x00, 0x0c, 0x00, 0x00, 0x00,
  0x9e, 0xd3, 0xff, 0xff, 0x10, 0x00, 0x00, 0x00, 0x0e, 0x00, 0x00, 0x00,
  0x1c, 0x00, 0x00, 0x00, 0x40, 0x00, 0x00, 0x00, 0x04, 0x00, 0x00, 0x00,
  0x01, 0x00, 0x00, 0x00, 0x07, 0x00, 0x00, 0x00, 0x01, 0x00, 0x00, 0x00,
  0x10, 0x00, 0x00, 0x00, 0x22, 0x00, 0x00, 0x00, 0x73, 0x65, 0x71, 0x75,
  0x65, 0x6e, 0x74, 0x69, 0x61, 0x6c, 0x2f, 0x6d, 0x61, 0x78, 0x5f, 0x70,
  0x6f, 0x6f, 0x6c, 0x69, 0x6e, 0x67, 0x32, 0x64, 0x5f, 0x31, 0x2f, 0x4d,
  0x61, 0x78, 0x50, 0x6f, 0x6f, 0x6c, 0x00, 0x00, 0xa0, 0xd3, 0xff, 0xff,
  0xc2, 0xfe, 0xff, 0xff, 0x00, 0x00, 0x00, 0x01, 0x24, 0x00, 0x00, 0x00,
  0x18, 0x00, 0x00, 0x00, 0x04, 0x00, 0x00, 0x00, 0xb4, 0xfe, 0xff, 0xff,
  0x01, 0x00, 0x00, 0x00, 0x01, 0x00, 0x00, 0x00, 0x00, 0x00, 0x00, 0x01,
  0x01, 0x00, 0x00, 0x00, 0x0c, 0x00, 0x00, 0x00, 0x03, 0x00, 0x00, 0x00,
  0x0b, 0x00, 0x00, 0x00, 0x07, 0x00, 0x00, 0x00, 0x09, 0x00, 0x00, 0x00,
  0x2e, 0xd4, 0xff, 0xff, 0x10, 0x00, 0x00, 0x00, 0x0d, 0x00, 0x00, 0x00,
  0x1c, 0x00, 0x00, 0x00, 0x2c, 0x00, 0x00, 0x00, 0x04, 0x00, 0x00, 0x00,
  0x01, 0x00, 0x00, 0x00, 0x15, 0x00, 0x00, 0x00, 0x01, 0x00, 0x00, 0x00,
  0x10, 0x00, 0x00, 0x00, 0x0c, 0x00, 0x00, 0x00, 0x74, 0x66, 0x6c, 0x2e,
  0x63, 0x6f, 0x6e, 0x76, 0x5f, 0x32, 0x64, 0x31, 0x00, 0x00, 0x00, 0x00,
  0x74, 0xd4, 0xff, 0xff, 0x00, 0x00, 0x0e, 0x00, 0x1a, 0x00, 0x08, 0x00,
  0x0c, 0x00, 0x10, 0x00, 0x07, 0x00, 0x14, 0x00, 0x0e, 0x00, 0x00, 0x00,
  0x00, 0x00, 0x00, 0x05, 0x01, 0x00, 0x00, 0x00, 0x3c, 0x00, 0x00, 0x00,
  0x30, 0x00, 0x00, 0x00, 0x14, 0x00, 0x00, 0x00, 0x00, 0x00, 0x0e, 0x00,
  0x18, 0x00, 0x17, 0x00, 0x10, 0x00, 0x0c, 0x00, 0x08, 0x00, 0x04, 0x00,
  0x0e, 0x00, 0x00, 0x00, 0x03, 0x00, 0x00, 0x00, 0x03, 0x00, 0x00, 0x00,
  0x03, 0x00, 0x00, 0x00, 0x03, 0x00, 0x00, 0x00, 0x00, 0x00, 0x00, 0x01,
  0x01, 0x00, 0x00, 0x00, 0x0b, 0x00, 0x00, 0x00, 0x01, 0x00, 0x00, 0x00,
  0x0a, 0x00, 0x00, 0x00, 0x46, 0xff, 0xff, 0xff, 0x00, 0x00, 0x00, 0x11,
  0x01, 0x00, 0x00, 0x00, 0xda, 0xd4, 0xff, 0xff, 0x10, 0x00, 0x00, 0x00,
  0x0c, 0x00, 0x00, 0x00, 0x1c, 0x00, 0x00, 0x00, 0x40, 0x00, 0x00, 0x00,
  0x04, 0x00, 0x00, 0x00, 0x01, 0x00, 0x00, 0x00, 0x15, 0x00, 0x00, 0x00,
  0x01, 0x00, 0x00, 0x00, 0x08, 0x00, 0x00, 0x00, 0x20, 0x00, 0x00, 0x00,
  0x73, 0x65, 0x71, 0x75, 0x65, 0x6e, 0x74, 0x69, 0x61, 0x6c, 0x2f, 0x6d,
  0x61, 0x78, 0x5f, 0x70, 0x6f, 0x6f, 0x6c, 0x69, 0x6e, 0x67, 0x32, 0x64,
  0x2f, 0x4d, 0x61, 0x78, 0x50, 0x6f, 0x6f, 0x6c, 0x00, 0x00, 0x00, 0x00,
  0x34, 0xd5, 0xff, 0xff, 0x00, 0x00, 0x0e, 0x00, 0x14, 0x00, 0x00, 0x00,
  0x08, 0x00, 0x0c, 0x00, 0x07, 0x00, 0x10, 0x00, 0x0e, 0x00, 0x00, 0x00,
  0x00, 0x00, 0x00, 0x01, 0x30, 0x00, 0x00, 0x00, 0x24, 0x00, 0x00, 0x00,
  0x10, 0x00, 0x00, 0x00, 0x0c, 0x00, 0x10, 0x00, 0x00, 0x00, 0x04, 0x00,
  0x08, 0x00, 0x0f, 0x00, 0x0c, 0x00, 0x00, 0x00, 0x01, 0x00, 0x00, 0x00,
  0x01, 0x00, 0x00, 0x00, 0x00, 0x00, 0x00, 0x01, 0x01, 0x00, 0x00, 0x00,
  0x0a, 0x00, 0x00, 0x00, 0x03, 0x00, 0x00, 0x00, 0x00, 0x00, 0x00, 0x00,
  0x06, 0x00, 0x00, 0x00, 0x08, 0x00, 0x00, 0x00, 0x00, 0x00, 0x0a, 0x00,
  0x0c, 0x00, 0x07, 0x00, 0x00, 0x00, 0x08, 0x00, 0x0a, 0x00, 0x00, 0x00,
  0x00, 0x00, 0x00, 0x03, 0x01, 0x00, 0x00, 0x00, 0x9e, 0xd5, 0xff, 0xff,
  0x10, 0x00, 0x00, 0x00, 0x0b, 0x00, 0x00, 0x00, 0x1c, 0x00, 0x00, 0x00,
  0x28, 0x00, 0x00, 0x00, 0x04, 0x00, 0x00, 0x00, 0x01, 0x00, 0x00, 0x00,
  0x40, 0x00, 0x00, 0x00, 0x03, 0x00, 0x00, 0x00, 0x08, 0x00, 0x00, 0x00,
  0x0b, 0x00, 0x00, 0x00, 0x74, 0x66, 0x6c, 0x2e, 0x63, 0x6f, 0x6e, 0x76,
  0x5f, 0x32, 0x64, 0x00, 0x88, 0xd5, 0xff, 0xff, 0x7e, 0xd6, 0xff, 0xff,
  0x04, 0x00, 0x00, 0x00, 0x40, 0x00, 0x00, 0x00, 0x8a, 0xcb, 0xef, 0x3f,
  0x77, 0x17, 0x69, 0x3d, 0x4b, 0x4a, 0x0a, 0xbe, 0xc2, 0x8a, 0xe3, 0x3e,
  0x59, 0x1e, 0xcf, 0xbf, 0x19, 0x92, 0xe3, 0xbf, 0xb8, 0x0f, 0xda, 0xbf,
  0xb8, 0x05, 0x7c, 0xbf, 0xf6, 0x02, 0x0e, 0xc0, 0x45, 0x03, 0x97, 0xbf,
  0xe8, 0xb5, 0x2e, 0xbf, 0x1c, 0x14, 0xd0, 0x3e, 0xc0, 0xa2, 0xcd, 0xbd,
  0x79, 0xf1, 0x5f, 0x3f, 0x40, 0xd8, 0x8d, 0x3f, 0xd3, 0xfe, 0xa9, 0x40,
  0x26, 0xd6, 0xff, 0xff, 0x10, 0x00, 0x00, 0x00, 0x0a, 0x00, 0x00, 0x00,
  0x10, 0x00, 0x00, 0x00, 0x20, 0x00, 0x00, 0x00, 0x01, 0x00, 0x00, 0x00,
  0x10, 0x00, 0x00, 0x00, 0x0d, 0x00, 0x00, 0x00, 0x73, 0x74, 0x64, 0x2e,
  0x63, 0x6f, 0x6e, 0x73, 0x74, 0x61, 0x6e, 0x74, 0x31, 0x00, 0x00, 0x00,
  0x08, 0xd6, 0xff, 0xff, 0xfe, 0xd6, 0xff, 0xff, 0x04, 0x00, 0x00, 0x00,
  0x20, 0x00, 0x00, 0x00, 0xc2, 0x62, 0x24, 0xc0, 0xc5, 0xc0, 0x9a, 0xbe,
  0xdb, 0xf0, 0xf7, 0xbf, 0xba, 0xd9, 0x29, 0xbf, 0xef, 0xbe, 0x04, 0xbf,
  0xdd, 0xf9, 0xcd, 0xbf, 0xe4, 0xad, 0x37, 0xc0, 0xe8, 0x1e, 0x09, 0xc0,
  0x86, 0xd6, 0xff, 0xff, 0x10, 0x00, 0x00, 0x00, 0x09, 0x00, 0x00, 0x00,
  0x10, 0x00, 0x00, 0x00, 0x20, 0x00, 0x00, 0x00, 0x01, 0x00, 0x00, 0x00,
  0x08, 0x00, 0x00, 0x00, 0x0c, 0x00, 0x00, 0x00, 0x73, 0x74, 0x64, 0x2e,
  0x63, 0x6f, 0x6e, 0x73, 0x74, 0x61, 0x6e, 0x74, 0x00, 0x00, 0x00, 0x00,
  0x68, 0xd6, 0xff, 0xff, 0x5e, 0xd7, 0xff, 0xff, 0x04, 0x00, 0x00, 0x00,
  0x00, 0x08, 0x00, 0x00, 0xcc, 0x9b, 0xfa, 0xbd, 0xce, 0xc1, 0xec, 0x3a,
  0xa3, 0x85, 0xa3, 0xbd, 0x4a, 0x68, 0x99, 0xbc, 0x97, 0xd4, 0x85, 0xbd,
  0xab, 0x0b, 0x4b, 0x3c, 0xf2, 0x0e, 0x21, 0x3c, 0x94, 0x23, 0xca, 0xbd,
  0xf2, 0x18, 0xec, 0xbd, 0xb4, 0xc3, 0x1b, 0x3e, 0x21, 0xe3, 0x23, 0xbd,
  0xfa, 0x78, 0xd8, 0x3c, 0xde, 0xaa, 0x06, 0xbd, 0x50, 0x3c, 0x66, 0x3c,
  0xa7, 0xe3, 0xda, 0xbd, 0x4d, 0xc2, 0x61, 0xbd, 0x44, 0xf6, 0x79, 0xbe,
  0xd0, 0x7e, 0x14, 0xbc, 0xe3, 0xc5, 0xf1, 0xbc, 0xe5, 0x3a, 0xff, 0x3d,
  0xd0, 0x14, 0x4a, 0x3d, 0x8f, 0x42, 0x43, 0xbc, 0xed, 0x35, 0xdc, 0xbd,
  0x74, 0x02, 0x72, 0x3d, 0x9a, 0x02, 0x22, 0xbc, 0xb9, 0x3d, 0xdc, 0x3d,
  0xa3, 0xdb, 0xa8, 0xbd, 0x3e, 0xeb, 0xb7, 0x3e, 0x07, 0x36, 0x03, 0xbd,
  0x36, 0x06, 0xe8, 0x3d, 0xe3, 0x22, 0x5d, 0x3c, 0xc8, 0x78, 0x6a, 0x3d,
  0x43, 0x57, 0x90, 0xbd, 0x91, 0x41, 0x18, 0xbe, 0x00, 0xa6, 0x92, 0xbe,
  0x23, 0xc9, 0x0a, 0x3e, 0x49, 0xee, 0x39, 0xbd, 0xaa, 0xc1, 0x25, 0x3d,
  0x4b, 0x8c, 0x12, 0x3d, 0x60, 0xe7, 0x0a, 0xbe, 0x39, 0xf5, 0xaa, 0x3e,
  0xdc, 0x03, 0x7d, 0xbe, 0x2a, 0xb3, 0xbf, 0xbe, 0x9d, 0x47, 0xcb, 0x3d,
  0x10, 0x9f, 0xd3, 0x3e, 0xcc, 0xcf, 0x01, 0xbe, 0xf3, 0x39, 0xac, 0xbd,
  0x1f, 0x7a, 0x24, 0x3e, 0x53, 0x6a, 0x34, 0xbe, 0x90, 0x62, 0x5b, 0xbe,
  0x69, 0xc9, 0x92, 0xbe, 0xa9, 0x7c, 0x9c, 0x3d, 0x6a, 0x6c, 0x48, 0x3c,
  0xce, 0x01, 0x12, 0xbd, 0xba, 0x02, 0x98, 0x3c, 0xbe, 0x4f, 0x52, 0x3d,
  0x2d, 0xf9, 0xcb, 0x3d, 0x87, 0x84, 0xd3, 0x3c, 0x53, 0x09, 0xfb, 0xbd,
  0xac, 0xcf, 0xa1, 0x3e, 0x2d, 0xcb, 0xb8, 0x3d, 0x78, 0xfb, 0x06, 0x3b,
  0xc5, 0x8b, 0x2a, 0x3d, 0x62, 0x97, 0x56, 0x3d, 0x35, 0x6c, 0xac, 0x3c,
  0xdd, 0xe3, 0x3b, 0xbe, 0x43, 0xee, 0x05, 0xbf, 0xa8, 0xbe, 0x5d, 0x3e,
  0xda, 0xe7, 0x3f, 0xbe, 0x46, 0xdf, 0x1c, 0xbe, 0xf9, 0x07, 0xba, 0x3d,
  0x89, 0x95, 0xb1, 0xbd, 0x13, 0xde, 0x92, 0x3e, 0xc9, 0x7f, 0xcd, 0xbe,
  0x49, 0xeb, 0xfd, 0xbe, 0x9e, 0xcd, 0x6d, 0x3e, 0x10, 0x11, 0x8a, 0x3e,
  0x02, 0x2c, 0xa3, 0xbe, 0xc7, 0xd9, 0x76, 0x3e, 0x24, 0x83, 0xa3, 0xbc,
  0x78, 0xfd, 0x79, 0x3e, 0xfb, 0xb5, 0x8a, 0xbe, 0x39, 0x5f, 0x09, 0xbf,
  0xba, 0xf5, 0xc3, 0x3d, 0x7f, 0x61, 0xab, 0xbd, 0x22, 0xbe, 0xab, 0xbe,
  0xaa, 0x3a, 0x8b, 0x3e, 0x5f, 0xb8, 0x6e, 0x3d, 0xd9, 0x83, 0x8a, 0x3e,
  0x5a, 0x78, 0x8a, 0xbc, 0x7e, 0x55, 0x70, 0xbe, 0xcd, 0x0c, 0xb8, 0xbd,
  0xf8, 0xad, 0x41, 0xbe, 0xb4, 0x6f, 0x57, 0xbe, 0xed, 0x77, 0xba, 0x3e,
  0xae, 0xe5, 0x11, 0x3e, 0x5e, 0xf3, 0x0a, 0x3e, 0x8a, 0x8e, 0x58, 0x3e,
  0xcb, 0x87, 0x56, 0xbe, 0x85, 0x73, 0x95, 0xbd, 0x3a, 0xc5, 0x1e, 0xbe,
  0x74, 0x0a, 0x9b, 0xbd, 0x3b, 0x34, 0xa9, 0xbe, 0xa4, 0x13, 0x5c, 0xbe,
  0xea, 0x23, 0x05, 0x3e, 0x70, 0xfa, 0xa5, 0x3e, 0xc8, 0x2c, 0x28, 0xbe,
  0xb4, 0x4e, 0x04, 0xbe, 0xdb, 0x68, 0x14, 0xbe, 0xa6, 0x23, 0xc8, 0x3d,
  0xf5, 0x57, 0x0e, 0xbd, 0x02, 0x47, 0x91, 0xbe, 0x3c, 0x2d, 0xee, 0xbd,
  0x4b, 0xdb, 0xca, 0x3c, 0xa4, 0x8f, 0xbe, 0xbe, 0x2d, 0xbe, 0x65, 0xbd,
  0x03, 0xd2, 0xd8, 0xbd, 0xd6, 0x63, 0x98, 0xbe, 0xc2, 0x94, 0x4e, 0x3d,
  0xcd, 0x89, 0xd7, 0xbd, 0x52, 0xdf, 0x5a, 0x3c, 0x19, 0xa8, 0xba, 0xbd,
  0xaa, 0x40, 0xd5, 0xbe, 0x5c, 0xde, 0xe5, 0x3d, 0x9e, 0x6b, 0x61, 0xbe,
  0x2e, 0x7d, 0x30, 0xbd, 0x28, 0x52, 0x94, 0xbc, 0x32, 0xc1, 0x1e, 0xbd,
  0x36, 0xdf, 0x58, 0x3d, 0xb2, 0xf2, 0x17, 0xbf, 0x09, 0x65, 0x1b, 0xbe,
  0xbd, 0x53, 0x76, 0xbd, 0xa5, 0x85, 0xc8, 0x3d, 0xb8, 0x2f, 0xe9, 0xbc,
  0x3e, 0x91, 0x1a, 0x3d, 0xd8, 0x93, 0x37, 0x3d, 0xf4, 0xcd, 0xb5, 0x3d,
  0x97, 0x1d, 0x24, 0xbf, 0x4d, 0xfb, 0xd3, 0xbd, 0x9f, 0xd6, 0xd0, 0xbe,
  0x53, 0x8e, 0x00, 0x3c, 0x4d, 0x3b, 0xa9, 0xbe, 0x63, 0x3c, 0x6e, 0x3e,
  0xc8, 0x3f, 0x86, 0x3e, 0xac, 0x2c, 0x80, 0xbe, 0x02, 0xcf, 0xa2, 0x3d,
  0x7b, 0xce, 0xff, 0x3d, 0xd7, 0xb6, 0x53, 0xbe, 0xb9, 0x7d, 0xee, 0xbe,
  0x79, 0x31, 0xa8, 0xbe, 0xf4, 0xa3, 0x8f, 0x3d, 0x33, 0x39, 0xa3, 0x3e,
  0x75, 0x4b, 0x0b, 0x3e, 0xb1, 0x19, 0x7f, 0x3d, 0x51, 0x43, 0xcd, 0x3d,
  0xac, 0x08, 0x22, 0xbd, 0x86, 0x3e, 0x2a, 0x3d, 0xa8, 0xa1, 0x41, 0x3e,
  0xad, 0xb7, 0xd6, 0xbd, 0xf8, 0x8d, 0xe1, 0xbe, 0x54, 0x90, 0x24, 0x3e,
  0xc4, 0x90, 0x33, 0xbd, 0x29, 0x93, 0x81, 0xbd, 0x03, 0x71, 0xb5, 0xbd,
  0xbf, 0xcc, 0xb8, 0xbd, 0x43, 0x4c, 0xbd, 0xbd, 0x6f, 0xa1, 0xeb, 0xbe,
  0x5f, 0x7e, 0x5e, 0xbe, 0xdd, 0x25, 0x6b, 0xbe, 0xef, 0xc5, 0x40, 0xbd,
  0x5e, 0xa2, 0xd1, 0xbd, 0x50, 0xc4, 0xa5, 0xbd, 0x24, 0x58, 0xc1, 0xbd,
  0x33, 0xc5, 0xaa, 0xbd, 0x68, 0x78, 0x93, 0xbe, 0x59, 0x29, 0xb5, 0xbd,
  0xcb, 0x4e, 0x58, 0xbe, 0x3c, 0xfb, 0x90, 0xbb, 0x45, 0xb4, 0x6b, 0xbd,
  0x6e, 0xf7, 0xd5, 0xbb, 0x9f, 0x96, 0x2e, 0xbe, 0xc0, 0xd0, 0xc3, 0xbb,
  0x99, 0xd7, 0xcc, 0xbc, 0x3a, 0x86, 0x4a, 0x3e, 0x95, 0x07, 0x69, 0x3d,
  0x37, 0x2b, 0x94, 0xbc, 0xab, 0x05, 0x9d, 0x3d, 0x0e, 0xf4, 0x24, 0x3e,
  0x97, 0x2b, 0x00, 0x3e, 0x5a, 0x0f, 0xee, 0x3d, 0xc2, 0xf5, 0x49, 0x3f,
  0x68, 0x58, 0x9e, 0x3d, 0xe7, 0x72, 0x91, 0xbe, 0xea, 0xb2, 0x8f, 0x3d,
  0x5f, 0x39, 0xc0, 0xbd, 0xab, 0x2d, 0x90, 0xbe, 0xd1, 0x4a, 0x9e, 0xbe,
  0xef, 0x8f, 0x01, 0xbe, 0x23, 0x2d, 0xd3, 0xbd, 0x98, 0x31, 0xde, 0xbc,
  0xe3, 0x3b, 0x26, 0x3d, 0x34, 0xe6, 0x85, 0x3a, 0x41, 0x73, 0xfd, 0xbd,
  0x9b, 0xf6, 0x19, 0xbe, 0x0d, 0x67, 0x26, 0xbf, 0xa3, 0xfb, 0x2f, 0x3e,
  0x3f, 0xde, 0xaa, 0x3d, 0x1b, 0x29, 0x35, 0x3e, 0xde, 0x32, 0xc5, 0x3e,
  0xae, 0x73, 0x9a, 0xbc, 0x4f, 0xd3, 0x68, 0xbc, 0x4b, 0xc3, 0x66, 0x3e,
  0x2b, 0x0c, 0xaa, 0xbe, 0xc5, 0x1c, 0x08, 0xbd, 0x91, 0xaa, 0xcc, 0x3e,
  0x0a, 0xb5, 0x8b, 0xbd, 0x14, 0x79, 0x8e, 0x3e, 0xf0, 0x61, 0x51, 0xbc,
  0x87, 0xfe, 0x92, 0xbc, 0x8a, 0x3a, 0xfa, 0x3c, 0xea, 0xe6, 0x0f, 0xbe,
  0xc2, 0xbc, 0x96, 0xbe, 0xdf, 0x11, 0x6b, 0xbe, 0x17, 0x37, 0xe7, 0xbe,
  0x50, 0xaa, 0x09, 0xbd, 0x24, 0xaf, 0xa8, 0xbe, 0xe7, 0x63, 0xb2, 0xbd,
  0x2a, 0x93, 0x3e, 0xbd, 0xad, 0x09, 0x86, 0x3e, 0xbb, 0x34, 0x53, 0xbe,
  0xdb, 0x77, 0x05, 0xbe, 0xf4, 0x1d, 0x22, 0x3f, 0xf7, 0xee, 0x61, 0xbe,
  0xb7, 0x35, 0x90, 0xbe, 0xdf, 0x2a, 0x14, 0xbe, 0x10, 0x91, 0x22, 0xbe,
  0x23, 0x14, 0x1f, 0xbe, 0x9e, 0x0f, 0x5f, 0xbe, 0xfd, 0x6b, 0xb7, 0xbd,
  0x13, 0x47, 0xfe, 0xbd, 0x85, 0xf6, 0x85, 0x3d, 0x9b, 0xe3, 0xba, 0x3c,
  0xb9, 0xa0, 0xc2, 0xbc, 0x36, 0xe6, 0x10, 0xbe, 0xbd, 0x5b, 0x0f, 0xbd,
  0xba, 0xf5, 0x09, 0xbe, 0x55, 0xb5, 0xc5, 0x3e, 0xe6, 0x65, 0x43, 0xbe,
  0xb1, 0x1f, 0x5b, 0x3e, 0x4c, 0x68, 0xb7, 0x3d, 0x84, 0xe9, 0xa5, 0x3d,
  0x60, 0x30, 0x1d, 0xbe, 0x27, 0x25, 0xd0, 0x3d, 0x1a, 0x9c, 0x4a, 0x3e,
  0x5b, 0x68, 0x75, 0xbe, 0xf1, 0xed, 0x2f, 0xbd, 0x23, 0xd8, 0x1c, 0x3e,
  0x4f, 0x3f, 0x1c, 0x3b, 0xa8, 0x91, 0x13, 0xbc, 0x29, 0xb7, 0x1a, 0xbd,
  0x2d, 0x41, 0xf4, 0xbd, 0xc0, 0x5d, 0xbf, 0x3d, 0x6c, 0x55, 0xeb, 0x3d,
  0x47, 0x05, 0x2c, 0x3f, 0x52, 0xbb, 0xb2, 0x3d, 0xe8, 0xcf, 0xb0, 0xbc,
  0x2f, 0xd2, 0x07, 0xbc, 0x67, 0x93, 0x0a, 0x3d, 0xa5, 0x3c, 0x14, 0xbe,
  0xd0, 0xd6, 0x23, 0xbd, 0x07, 0x38, 0x47, 0x3e, 0xf0, 0x84, 0x2a, 0xbe,
  0x3d, 0xb3, 0x3e, 0x3e, 0xa2, 0xc2, 0x0f, 0xbd, 0x85, 0x24, 0xaa, 0x3c,
  0xea, 0x07, 0x88, 0xbd, 0x1c, 0x63, 0x82, 0xbd, 0x49, 0xdf, 0xad, 0xbd,
  0xaa, 0x23, 0x70, 0xbe, 0xa7, 0x59, 0x6a, 0xbe, 0x36, 0xaa, 0x39, 0x3d,
  0xef, 0x2d, 0x5a, 0xbd, 0xf2, 0x9c, 0xce, 0xbc, 0x79, 0x29, 0x84, 0x3b,
  0x85, 0x7c, 0x70, 0xbc, 0xb4, 0x24, 0xed, 0xbd, 0x35, 0x9c, 0xbd, 0xbe,
  0x35, 0xe3, 0x46, 0xbe, 0x98, 0x9d, 0x78, 0x3e, 0xa0, 0xd9, 0x89, 0xbe,
  0x77, 0x4a, 0xaa, 0xbd, 0xa6, 0x77, 0x7b, 0xbd, 0x26, 0x32, 0x18, 0x3f,
  0xb9, 0x25, 0x71, 0x3c, 0xd8, 0xe3, 0xa7, 0xbe, 0xff, 0x22, 0x9d, 0xbe,
  0xce, 0x6c, 0xa0, 0x3d, 0x1e, 0x3e, 0x07, 0xbf, 0x89, 0x0c, 0xe6, 0xbc,
  0xe9, 0xd8, 0x22, 0xbb, 0xd8, 0x61, 0x40, 0xbd, 0xf2, 0x6b, 0x7f, 0xbd,
  0x5a, 0xbd, 0xfd, 0x3c, 0x14, 0xc4, 0x0b, 0x3e, 0x0d, 0x6b, 0xcf, 0xbe,
  0x6e, 0x71, 0x13, 0xbe, 0xf5, 0xc5, 0xa5, 0xbb, 0x12, 0x5c, 0x04, 0xbe,
  0xeb, 0xe4, 0x21, 0xbe, 0x1a, 0x01, 0x20, 0xbe, 0xd2, 0x2a, 0x01, 0x3f,
  0x81, 0xfa, 0x69, 0xbb, 0xd3, 0x24, 0x4c, 0xbe, 0xd2, 0x33, 0x78, 0x3d,
  0x72, 0xac, 0x86, 0xbc, 0xdf, 0x90, 0x83, 0xbd, 0x97, 0x11, 0x08, 0xbe,
  0x51, 0x54, 0x7b, 0xbd, 0xfd, 0xaa, 0xe4, 0x3c, 0xce, 0xcf, 0xa9, 0x3d,
  0x7b, 0xbd, 0x10, 0x3f, 0x7f, 0x3b, 0xf1, 0xbc, 0xf9, 0x7b, 0xd7, 0xbd,
  0x21, 0xb7, 0x2d, 0xbd, 0x8d, 0x5f, 0xe0, 0x3d, 0x7b, 0x57, 0x04, 0x3c,
  0x7b, 0x96, 0x7d, 0x3e, 0xe3, 0x90, 0x91, 0x3d, 0xba, 0x96, 0x45, 0x3c,
  0xa0, 0x1e, 0xf5, 0xbd, 0x90, 0x65, 0xbd, 0xbd, 0xcc, 0xa8, 0x01, 0xbe,
  0x83, 0x6b, 0x3a, 0xbd, 0xc0, 0x6d, 0x00, 0xbe, 0x63, 0xfb, 0xcb, 0x3e,
  0xf0, 0xac, 0x1b, 0xbd, 0x13, 0xe1, 0x18, 0xbe, 0x8d, 0x18, 0x69, 0xbe,
  0xf6, 0xe6, 0x49, 0xbe, 0xac, 0xbe, 0x5b, 0xbe, 0x53, 0xfb, 0x24, 0xbc,
  0x6a, 0x07, 0x77, 0xbd, 0x19, 0x70, 0x1f, 0xbe, 0xfe, 0x16, 0x7b, 0xbd,
  0x2e, 0x22, 0xd9, 0x3d, 0xe8, 0xfd, 0x47, 0xbe, 0x47, 0xf4, 0xd2, 0xbd,
  0x8c, 0xc1, 0xf7, 0xbd, 0xe4, 0xc2, 0x21, 0x3d, 0x25, 0xd1, 0x28, 0xbe,
  0xfb, 0x58, 0xdc, 0x3e, 0x81, 0x36, 0x49, 0x3d, 0x44, 0xd3, 0x00, 0x3f,
  0xe2, 0x73, 0xd9, 0xbc, 0x59, 0x0f, 0x87, 0x3c, 0xed, 0x71, 0x23, 0xbe,
  0x57, 0x9f, 0x89, 0xbe, 0xfb, 0x52, 0x04, 0xbe, 0x2e, 0x1a, 0x21, 0xbe,
  0xa6, 0x9c, 0x95, 0xbe, 0xa2, 0x0d, 0x8e, 0x3d, 0x9a, 0x62, 0x5a, 0xbd,
  0xbc, 0xba, 0x99, 0xbd, 0x78, 0x49, 0x14, 0xbe, 0x02, 0xd5, 0x4f, 0xbe,
  0x8a, 0x43, 0x36, 0xbe, 0xd6, 0x16, 0xb9, 0xbe, 0x8f, 0x19, 0x9f, 0xbe,
  0x1f, 0x04, 0xd0, 0x3e, 0xbe, 0xd5, 0x6e, 0x3d, 0xe6, 0x1b, 0xf0, 0xbd,
  0xbb, 0xe6, 0xcd, 0x3b, 0x4f, 0x6d, 0xb5, 0xbb, 0x19, 0x9c, 0xe6, 0xbd,
  0x67, 0xef, 0x5c, 0xbc, 0xde, 0x28, 0x82, 0xbd, 0xa5, 0x3a, 0x54, 0x3e,
  0x01, 0x80, 0xb5, 0xbb, 0x52, 0x2c, 0xb7, 0xbd, 0x42, 0x8b, 0xbe, 0x3e,
  0x3b, 0xff, 0x80, 0x3e, 0x6e, 0x83, 0x14, 0x3e, 0xb4, 0x60, 0xa1, 0xbb,
  0x5d, 0xa2, 0x1c, 0x3e, 0x0a, 0x7d, 0x1d, 0xbe, 0x24, 0xc8, 0xc6, 0xbe,
  0x6a, 0xa2, 0xd0, 0xbc, 0x03, 0x1f, 0xcc, 0xbe, 0x7b, 0xce, 0x24, 0xbe,
  0x78, 0xae, 0x0e, 0xbe, 0x5a, 0x3d, 0x54, 0x3e, 0xc6, 0x49, 0x09, 0xbe,
  0x54, 0x49, 0xd0, 0xbd, 0xad, 0xad, 0xdd, 0xbe, 0x24, 0xdc, 0x3c, 0xbd,
  0x6b, 0xe5, 0x24, 0xbf, 0x3d, 0xf7, 0xe4, 0xbd, 0x90, 0xf4, 0x72, 0xbe,
  0x7b, 0xb4, 0x48, 0x3e, 0xdb, 0x81, 0x84, 0xbc, 0x4f, 0xb5, 0x05, 0x3e,
  0x5a, 0x9b, 0xc8, 0x3d, 0xe8, 0xef, 0xfa, 0xbc, 0xae, 0x26, 0xc7, 0xbe,
  0x8c, 0xa0, 0x69, 0xbd, 0xa1, 0x41, 0x46, 0xbe, 0xbd, 0xfa, 0x5b, 0x3e,
  0x2b, 0x6a, 0xd3, 0xbd, 0x50, 0x40, 0x8d, 0x3e, 0x70, 0xc3, 0xe5, 0xbd,
  0x37, 0xb1, 0x50, 0x3d, 0x8c, 0x16, 0x16, 0xbe, 0xae, 0xaf, 0x2d, 0x3e,
  0x72, 0x97, 0xf0, 0x3e, 0xd1, 0x9c, 0x5b, 0x3d, 0xc7, 0xaf, 0x2e, 0xbd,
  0xd7, 0x72, 0x58, 0x3d, 0x79, 0x3e, 0x07, 0x3e, 0x94, 0x14, 0x3c, 0x3e,
  0x3d, 0x7e, 0x9f, 0xbd, 0x13, 0x22, 0x68, 0xbd, 0x0d, 0xfa, 0x00, 0xbe,
  0x5a, 0x98, 0xaf, 0x3d, 0x75, 0xfd, 0x1b, 0xbc, 0xda, 0xf0, 0xcf, 0x3d,
  0xa8, 0x5b, 0x6b, 0xbd, 0x0f, 0x17, 0xaa, 0x3e, 0x96, 0x80, 0x3f, 0xbe,
  0xd0, 0xe0, 0x31, 0x3d, 0x64, 0x98, 0x2e, 0x3c, 0x91, 0x37, 0x13, 0x3d,
  0x0a, 0xef, 0x7b, 0x3c, 0x31, 0x4d, 0x15, 0xbd, 0x48, 0x7f, 0x25, 0xbd,
  0xb9, 0x08, 0x60, 0x3b, 0x7c, 0x05, 0x09, 0xbe, 0x7a, 0xbd, 0x4e, 0x3e,
  0xb5, 0x0a, 0x90, 0x3d, 0xd3, 0x87, 0xba, 0x3d, 0x72, 0x46, 0x6d, 0xbc,
  0xf7, 0xd0, 0x62, 0x3c, 0xd7, 0x95, 0xcb, 0xbd, 0x0f, 0xb7, 0xe9, 0x3c,
  0xc8, 0x10, 0x12, 0xbe, 0x32, 0xa8, 0x1b, 0x3d, 0x85, 0xf3, 0x38, 0xbc,
  0x09, 0xa6, 0x7f, 0xbc, 0x42, 0x75, 0x88, 0xbd, 0x6e, 0x3f, 0x76, 0xbe,
  0x0e, 0x63, 0x60, 0xbe, 0x24, 0xe7, 0xdd, 0xbe, 0x04, 0x2f, 0x03, 0xbe,
  0x43, 0xf3, 0x63, 0xbe, 0xf3, 0x27, 0xc4, 0xbe, 0xdf, 0x48, 0x2b, 0x3d,
  0xb9, 0xe4, 0xe8, 0x3e, 0x01, 0x20, 0x96, 0xbd, 0x1f, 0x7d, 0x0f, 0xbd,
  0x3c, 0x92, 0x0c, 0xbd, 0x91, 0x10, 0x90, 0x3a, 0x08, 0x97, 0x13, 0x3e,
  0x93, 0xde, 0xb6, 0xbe, 0x68, 0x9b, 0x73, 0x3e, 0x09, 0xee, 0x0c, 0xbe,
  0x62, 0x64, 0xb5, 0xbd, 0xc5, 0x93, 0x71, 0xbc, 0xc1, 0xdb, 0x87, 0xbc,
  0x05, 0x88, 0x15, 0x3d, 0x5c, 0xf9, 0xb8, 0xbe, 0xd6, 0x22, 0x90, 0xbe,
  0x85, 0x17, 0x1d, 0x3e, 0x55, 0x95, 0x27, 0xbe, 0xe2, 0xb4, 0x7f, 0x3d,
  0xb8, 0x1a, 0xa6, 0x3d, 0x93, 0x43, 0xfa, 0xbc, 0x3f, 0x62, 0x17, 0x3d,
  0x9b, 0xbc, 0x2c, 0xbd, 0xd9, 0x22, 0xf1, 0xbd, 0xb6, 0xd9, 0xb7, 0x3d,
  0xc8, 0x2d, 0x7f, 0xbe, 0x9e, 0x22, 0xcb, 0xbb, 0xe7, 0xfe, 0x1d, 0x3e,
  0x5b, 0x17, 0x3c, 0xbe, 0x45, 0xe4, 0x60, 0xbd, 0x61, 0xea, 0x69, 0xbe,
  0x33, 0x44, 0x63, 0x3d, 0x20, 0xa4, 0x52, 0xbd, 0xb2, 0xd7, 0x53, 0xbe,
  0x2e, 0xba, 0x45, 0x3e, 0xed, 0x93, 0x6f, 0xbe, 0x04, 0x97, 0x01, 0xbe,
  0xd4, 0x92, 0x31, 0xbb, 0xe3, 0x34, 0x92, 0xbd, 0x73, 0x17, 0xd5, 0xbc,
  0x91, 0x31, 0xcb, 0x3d, 0xfb, 0x6a, 0x1b, 0xbe, 0xf2, 0xe4, 0x0d, 0xbe,
  0x98, 0xb4, 0x0a, 0xbe, 0x6f, 0x4c, 0x68, 0xbd, 0x7a, 0xab, 0xc2, 0xbd,
  0x42, 0xd0, 0x63, 0xbc, 0xd7, 0x09, 0x9d, 0xbd, 0x99, 0x05, 0xbf, 0xbe,
  0x70, 0xc3, 0x3f, 0xbe, 0x66, 0x63, 0x57, 0xbe, 0x63, 0x73, 0xa0, 0xbd,
  0x85, 0x28, 0x70, 0xbe, 0x83, 0xff, 0x61, 0xbd, 0x8c, 0xd2, 0x6d, 0x3d,
  0xe6, 0x02, 0x0e, 0x3d, 0x64, 0xae, 0x93, 0xbe, 0xcc, 0x18, 0x16, 0xbe,
  0xc6, 0xde, 0xff, 0xff, 0x10, 0x00, 0x00, 0x00, 0x08, 0x00, 0x00, 0x00,
  0x1c, 0x00, 0x00, 0x00, 0x38, 0x00, 0x00, 0x00, 0x04, 0x00, 0x00, 0x00,
  0x10, 0x00, 0x00, 0x00, 0x04, 0x00, 0x00, 0x00, 0x01, 0x00, 0x00, 0x00,
  0x08, 0x00, 0x00, 0x00, 0x1a, 0x00, 0x00, 0x00, 0x73, 0x65, 0x71, 0x75,
  0x65, 0x6e, 0x74, 0x69, 0x61, 0x6c, 0x2f, 0x63, 0x6f, 0x6e, 0x76, 0x32,
  0x64, 0x5f, 0x31, 0x2f, 0x43, 0x6f, 0x6e, 0x76, 0x32, 0x44, 0x00, 0x00,
  0xc0, 0xde, 0xff, 0xff, 0xb6, 0xdf, 0xff, 0xff, 0x04, 0x00, 0x00, 0x00,
  0x80, 0x01, 0x00, 0x00, 0x23, 0xed, 0x8d, 0xbe, 0x0e, 0x3f, 0xc8, 0x3d,
  0x27, 0x38, 0x98, 0xbc, 0xea, 0x11, 0xc7, 0xbe, 0x29, 0xfb, 0x61, 0xbe,
  0x02, 0x49, 0xb5, 0xbd, 0x5e, 0x4e, 0x75, 0x3e, 0x78, 0x51, 0xb3, 0x3b,
  0x9e, 0x73, 0x00, 0xbe, 0x63, 0x29, 0xd4, 0x3e, 0x8a, 0x26, 0x07, 0x3e,
  0x5c, 0xc4, 0x86, 0x3e, 0xe3, 0x30, 0x0c, 0xbe, 0x44, 0x4b, 0x7c, 0xbd,
  0xbf, 0xa5, 0x31, 0xbe, 0xbc, 0x4a, 0x86, 0xbd, 0x25, 0x2d, 0x87, 0x3d,
  0x09, 0x94, 0x4c, 0xbd, 0x85, 0xa8, 0x48, 0xbd, 0xcc, 0x46, 0x9e, 0x3c,
  0x45, 0x00, 0x93, 0xbd, 0x9f, 0xc4, 0x37, 0xbd, 0x67, 0x58, 0x93, 0x3c,
  0xba, 0x3f, 0x11, 0xbe, 0xe2, 0x69, 0xbd, 0xbd, 0xdc, 0xfc, 0x63, 0xbd,
  0xd6, 0xe2, 0xee, 0x3d, 0xfc, 0x07, 0xa7, 0xbd, 0xc7, 0x19, 0xcb, 0x3b,
  0xcc, 0xba, 0x85, 0x3d, 0xd6, 0x8e, 0xf2, 0xbc, 0x1b, 0xb5, 0x39, 0x3d,
  0xe4, 0x43, 0xed, 0x3c, 0x20, 0xb0, 0x87, 0xbd, 0x43, 0xc1, 0xad, 0x3d,
  0x8e, 0x5a, 0x84, 0x3d, 0xcd, 0x13, 0x78, 0xbd, 0x8a, 0x79, 0x5d, 0x3d,
  0x8c, 0xd7, 0x99, 0xbd, 0x62, 0xfe, 0xcd, 0x3e, 0x1e, 0x70, 0xe7, 0xbd,
  0x70, 0xc1, 0x94, 0x3d, 0xd6, 0x35, 0xb2, 0xbe, 0xe8, 0x35, 0x44, 0xba,
  0x75, 0x8c, 0x12, 0xbd, 0x3c, 0x2e, 0x99, 0x3e, 0xff, 0x72, 0xff, 0xbc,
  0x66, 0xc8, 0xf6, 0x3c, 0x66, 0x8e, 0x60, 0xbd, 0x47, 0x9b, 0x30, 0x3e,
  0x14, 0x48, 0xce, 0xbc, 0xea, 0xfb, 0x85, 0xbe, 0x81, 0xf7, 0xd1, 0xbe,
  0x6e, 0xd9, 0x0b, 0xbe, 0x7a, 0x2a, 0x6d, 0x3e, 0xac, 0xa9, 0xc4, 0x3d,
  0x65, 0x34, 0x91, 0x3d, 0x88, 0xc1, 0x8f, 0x3e, 0xeb, 0xa0, 0x80, 0x3e,
  0xdf, 0x12, 0x3f, 0x3d, 0x83, 0x14, 0xc9, 0xbd, 0x72, 0xe2, 0xfd, 0x3d,
  0x13, 0xec, 0x2f, 0xbe, 0x9e, 0x97, 0xff, 0xbc, 0x5e, 0x4c, 0xe7, 0x3d,
  0x7b, 0x79, 0x75, 0xbd, 0xfd, 0xca, 0x9c, 0x3d, 0x49, 0xc5, 0x74, 0xbb,
  0x48, 0x67, 0x29, 0xbd, 0x7c, 0x74, 0x48, 0x3e, 0x7e, 0x6f, 0xc4, 0xbd,
  0x23, 0xa9, 0xf2, 0x3c, 0xbb, 0xd7, 0x24, 0x3e, 0x1d, 0xfc, 0x4e, 0x3e,
  0xfa, 0x90, 0xdb, 0xbc, 0x2f, 0x52, 0x34, 0x3e, 0xed, 0xe7, 0xae, 0x3e,
  0xab, 0x9f, 0x1e, 0xbe, 0xdd, 0x8d, 0xab, 0xbe, 0x2d, 0xd1, 0x01, 0xbf,
  0x2b, 0x69, 0x25, 0x3e, 0x69, 0x19, 0xe9, 0xbc, 0x42, 0x43, 0x56, 0xbd,
  0x49, 0xe8, 0x26, 0x3d, 0x0e, 0xec, 0xed, 0x3d, 0xe5, 0xa9, 0x05, 0xbc,
  0xaa, 0xf2, 0xe4, 0x3b, 0xa0, 0x23, 0x07, 0x3f, 0xad, 0xab, 0x4d, 0x3e,
  0x6d, 0xda, 0x1a, 0x3e, 0x6c, 0x27, 0xde, 0xbd, 0x1b, 0x24, 0x09, 0x3e,
  0xf2, 0xa4, 0x27, 0x3d, 0xaa, 0x55, 0xe3, 0xbe, 0xd4, 0x13, 0x9b, 0xbe,
  0x46, 0xc3, 0x21, 0xbe, 0x9e, 0xe0, 0xff, 0xff, 0x10, 0x00, 0x00, 0x00,
  0x07, 0x00, 0x00, 0x00, 0x1c, 0x00, 0x00, 0x00, 0x38, 0x00, 0x00, 0x00,
  0x04, 0x00, 0x00, 0x00, 0x08, 0x00, 0x00, 0x00, 0x04, 0x00, 0x00, 0x00,
  0x03, 0x00, 0x00, 0x00, 0x01, 0x00, 0x00, 0x00, 0x18, 0x00, 0x00, 0x00,
  0x73, 0x65, 0x71, 0x75, 0x65, 0x6e, 0x74, 0x69, 0x61, 0x6c, 0x2f, 0x63,
  0x6f, 0x6e, 0x76, 0x32, 0x64, 0x2f, 0x43, 0x6f, 0x6e, 0x76, 0x32, 0x44,
  0x00, 0x00, 0x00, 0x00, 0x98, 0xe0, 0xff, 0xff, 0x8e, 0xe1, 0xff, 0xff,
  0x04, 0x00, 0x00, 0x00, 0x00, 0x01, 0x00, 0x00, 0x23, 0x72, 0xae, 0x3d,
  0xfb, 0xb8, 0x80, 0xbb, 0xd6, 0x92, 0xef, 0xba, 0xd9, 0xde, 0x04, 0x3d,
  0x24, 0xe7, 0xc4, 0x3e, 0xe0, 0x5d, 0x7a, 0x3d, 0xa4, 0x51, 0xde, 0x3d,
  0x9e, 0xb3, 0xf7, 0x3d, 0x69, 0x9a, 0xbd, 0x3e, 0x4e, 0x14, 0x2f, 0x3e,
  0xfd, 0x03, 0x28, 0x3f, 0xab, 0x61, 0x9d, 0xbd, 0x9f, 0xc2, 0xf1, 0xbd,
  0xca, 0x3d, 0xc4, 0x3e, 0x09, 0x5c, 0xb2, 0xbb, 0x98, 0x9f, 0x58, 0x3e,
  0xc8, 0x89, 0xc3, 0x3d, 0x0e, 0xb3, 0x1b, 0x3d, 0xcd, 0x50, 0x6b, 0xbd,
  0xc8, 0xbd, 0x0e, 0x3c, 0xbe, 0xe3, 0xc9, 0x3e, 0x3a, 0x4d, 0xdd, 0x3d,
  0x96, 0xfb, 0xee, 0xbe, 0x6a, 0x05, 0xf6, 0x3d, 0x96, 0xdb, 0xa6, 0x3e,
  0x50, 0x58, 0x56, 0x3e, 0x64, 0x10, 0xe2, 0xbe, 0xce, 0x96, 0x25, 0xbd,
  0xa9, 0xb4, 0xeb, 0x3d, 0x64, 0x0d, 0xd5, 0x3e, 0x47, 0x45, 0x2a, 0x3e,
  0xc7, 0x0a, 0x43, 0x3d, 0x44, 0xd5, 0xed, 0x3d, 0x57, 0xad, 0x6b, 0xbd,
  0xcd, 0xa2, 0x76, 0xbd, 0x94, 0x4c, 0x94, 0x3d, 0xe8, 0xff, 0xb3, 0x3e,
  0x4d, 0x3e, 0xa4, 0x3d, 0xbf, 0x3e, 0x0f, 0xbd, 0xaf, 0x4b, 0xd7, 0x3d,
  0x54, 0xb2, 0x8b, 0x3e, 0x20, 0x46, 0x16, 0x3e, 0x08, 0xc4, 0x13, 0xbf,
  0x44, 0x32, 0x4e, 0xbe, 0xf6, 0xfe, 0x00, 0xbf, 0xcd, 0x4e, 0xbc, 0x3e,
  0xdf, 0x0a, 0xfe, 0x3d, 0xd7, 0xb6, 0xac, 0x3e, 0x41, 0x4d, 0x96, 0x3d,
  0xf1, 0x8b, 0xd7, 0xbb, 0xa1, 0x68, 0xac, 0xbd, 0xa1, 0x94, 0xcb, 0x3c,
  0xf4, 0x7b, 0xb3, 0x3e, 0x7e, 0xff, 0x13, 0x3e, 0x05, 0x83, 0xd2, 0xbd,
  0x3e, 0xf0, 0x4f, 0x3e, 0x18, 0x54, 0x8d, 0x3e, 0xb3, 0x09, 0x1c, 0x3e,
  0x36, 0x52, 0x31, 0xbf, 0x93, 0xd9, 0xcb, 0xba, 0x8b, 0xb9, 0xcd, 0x3d,
  0xc0, 0x7c, 0xb8, 0x3e, 0x6d, 0x7b, 0x43, 0x3e, 0x51, 0xa6, 0x9d, 0x3e,
  0xf6, 0xe1, 0xff, 0xff, 0x10, 0x00, 0x00, 0x00, 0x06, 0x00, 0x00, 0x00,
  0x14, 0x00, 0x00, 0x00, 0x30, 0x00, 0x00, 0x00, 0x02, 0x00, 0x00, 0x00,
  0x04, 0x00, 0x00, 0x00, 0x10, 0x00, 0x00, 0x00, 0x19, 0x00, 0x00, 0x00,
  0x73, 0x65, 0x71, 0x75, 0x65, 0x6e, 0x74, 0x69, 0x61, 0x6c, 0x2f, 0x64,
  0x65, 0x6e, 0x73, 0x65, 0x5f, 0x31, 0x2f, 0x4d, 0x61, 0x74, 0x4d, 0x75,
  0x6c, 0x00, 0x00, 0x00, 0xe8, 0xe1, 0xff, 0xff, 0xde, 0xe2, 0xff, 0xff,
  0x04, 0x00, 0x00, 0x00, 0x00, 0x1c, 0x00, 0x00, 0x3a, 0x2b, 0x15, 0xbf,
  0xa7, 0xf2, 0xc3, 0xbe, 0x9e, 0xde, 0xba, 0xbe, 0x1e, 0x51, 0x36, 0xbd,
  0x20, 0x77, 0x86, 0x3e, 0xf1, 0xd7, 0x7f, 0xbd, 0xbd, 0xa0, 0x94, 0xbd,
  0x68, 0xe8, 0xba, 0xbb, 0xd0, 0x9c, 0xa9, 0x3c, 0x43, 0x4a, 0x77, 0x3e,
  0xfe, 0x5d, 0x8f, 0xbd, 0xad, 0x1e, 0xaa, 0x3d, 0xfb, 0x56, 0x07, 0x3f,
  0x40, 0x49, 0x8d, 0xbc, 0x79, 0x10, 0x99, 0xbe, 0xf1, 0x38, 0xee, 0xbd,
  0xa1, 0xa4, 0xb3, 0xbe, 0xb0, 0x9f, 0x8d, 0xbe, 0xd9, 0xbd, 0xa5, 0xbe,
  0x9a, 0xee, 0x8d, 0xbe, 0x24, 0x47, 0x85, 0xbd, 0x00, 0x7b, 0x7d, 0x3d,
  0xf6, 0xbb, 0x82, 0xbd, 0xd6, 0xd7, 0x67, 0x3e, 0x2b, 0x2a, 0x81, 0x3c,
  0x81, 0xd1, 0xb2, 0x3e, 0x27, 0x17, 0x74, 0x3e, 0x07, 0x28, 0x93, 0xbe,
  0x3c, 0xd3, 0xee, 0xbc, 0x71, 0x48, 0x08, 0x3d, 0xcb, 0xb8, 0x0a, 0x3e,
  0xbb, 0x79, 0x9e, 0x3d, 0x57, 0xd3, 0xa9, 0xbe, 0x4a, 0x69, 0x80, 0xbe,
  0x18, 0xaa, 0xc0, 0xbe, 0xc2, 0xce, 0xa0, 0x3e, 0x15, 0xf0, 0xd4, 0x3d,
  0xbb, 0x96, 0x93, 0x3d, 0xf2, 0x61, 0xfd, 0xbd, 0x3c, 0xed, 0xc9, 0x3e,
  0x05, 0xd8, 0xb4, 0x3d, 0x0f, 0x68, 0x3d, 0x3e, 0xcf, 0xde, 0x2e, 0x3e,
  0x8c, 0x53, 0x4c, 0xbd, 0xbf, 0x0e, 0xe0, 0x3d, 0x1f, 0xad, 0xdd, 0x3c,
  0x6c, 0xf2, 0x87, 0x3e, 0x67, 0xfe, 0x37, 0x3e, 0x0c, 0xf1, 0xc8, 0xbe,
  0xae, 0x7d, 0xd0, 0xbe, 0xd2, 0x29, 0x8b, 0x3d, 0x60, 0xc2, 0x51, 0x3f,
  0xb7, 0x1b, 0xda, 0x3c, 0x88, 0x27, 0xd3, 0x3d, 0x50, 0x1e, 0x12, 0xbd,
  0x9b, 0x3d, 0xbb, 0x3e, 0x95, 0x8d, 0x90, 0xbc, 0xd8, 0x01, 0x63, 0x3e,
  0x46, 0xf8, 0x66, 0x3d, 0xb3, 0x18, 0x44, 0x3d, 0xc4, 0xfa, 0xa4, 0x3e,
  0xbe, 0x97, 0x2c, 0xbc, 0xe1, 0x0f, 0xca, 0x3e, 0xbd, 0xc9, 0x1b, 0xbe,
  0xd2, 0x59, 0x84, 0xbe, 0x14, 0xe8, 0xdd, 0xbe, 0x56, 0x65, 0xc2, 0xbe,
  0x13, 0x98, 0x36, 0x3f, 0xa9, 0x90, 0x2c, 0x3e, 0x07, 0xbb, 0xf6, 0x3d,
  0x32, 0x0b, 0x9b, 0xba, 0x78, 0xdf, 0xa7, 0x3e, 0xb3, 0x05, 0x74, 0x3d,
  0x08, 0xf9, 0x81, 0x3e, 0x80, 0x19, 0xbf, 0xbd, 0x19, 0x3c, 0x4f, 0xbd,
  0x49, 0xeb, 0xee, 0x3e, 0x1e, 0x9c, 0x46, 0x3a, 0xe8, 0x6c, 0xdf, 0xbd,
  0x1a, 0xd1, 0xf7, 0x3d, 0x90, 0x77, 0xc3, 0xbe, 0xd1, 0xcd, 0xf6, 0xbe,
  0x1e, 0xc0, 0x51, 0xbe, 0xcf, 0xb4, 0x4f, 0x3f, 0xd9, 0xc5, 0xdc, 0x3d,
  0x1a, 0x3b, 0xf1, 0x3d, 0xfb, 0x69, 0x86, 0xbd, 0xb6, 0xc9, 0x75, 0x3d,
  0x73, 0x48, 0xdf, 0xbd, 0xaa, 0xc5, 0xab, 0x3d, 0x46, 0xc5, 0x47, 0x3c,
  0x68, 0x2a, 0x4a, 0xbe, 0x3f, 0x15, 0xb9, 0x3e, 0x5e, 0x00, 0x5e, 0x3d,
  0x36, 0x95, 0x29, 0xbe, 0x0d, 0x1f, 0x2c, 0xbd, 0xb7, 0xc4, 0xdb, 0xbd,
  0xce, 0x46, 0x55, 0x3d, 0x74, 0xda, 0x92, 0xbd, 0xd8, 0x2b, 0xd4, 0xbe,
  0x44, 0x2d, 0x1d, 0xbe, 0xaa, 0xc3, 0xd2, 0x3d, 0xa0, 0x79, 0x4a, 0xbe,
  0xf6, 0xbf, 0x97, 0x3e, 0x92, 0x59, 0x8f, 0xbd, 0x42, 0xc1, 0x96, 0x3d,
  0xac, 0x9c, 0x93, 0x3e, 0x72, 0x1d, 0x3d, 0xbd, 0xc5, 0x42, 0x96, 0x3e,
  0x38, 0xd5, 0x8f, 0xbc, 0x6f, 0x63, 0x0e, 0xbe, 0x30, 0x72, 0x5e, 0x3d,
  0x7a, 0x80, 0x8a, 0x3c, 0x55, 0x81, 0xff, 0xbd, 0x80, 0xaa, 0x00, 0xbe,
  0x47, 0x37, 0xd2, 0xbe, 0x48, 0x2b, 0x59, 0xbe, 0x5c, 0x7b, 0x94, 0xbe,
  0x1a, 0x05, 0xa1, 0xbe, 0x07, 0x60, 0x9b, 0xbd, 0xe6, 0xc6, 0xd6, 0xbe,
  0x1c, 0x5c, 0xe7, 0xbe, 0x30, 0x89, 0xc4, 0xbe, 0xa8, 0x4a, 0x84, 0xbe,
  0x69, 0x05, 0x52, 0xbd, 0x5e, 0x3d, 0xab, 0xbe, 0xbb, 0x0b, 0x05, 0xbf,
  0xa4, 0x9a, 0xa5, 0xbd, 0x3a, 0xb0, 0x05, 0xbd, 0xd5, 0x0d, 0xa6, 0xbd,
  0x9d, 0x40, 0xd8, 0xbd, 0xf2, 0x53, 0x64, 0xbe, 0xaf, 0x24, 0xc7, 0xbc,
  0x74, 0xd9, 0xcb, 0xbe, 0xaf, 0xdc, 0x66, 0xbe, 0xff, 0xbc, 0x98, 0xbe,
  0x3c, 0x5e, 0xb2, 0xbe, 0x4e, 0x13, 0x8a, 0xbe, 0x66, 0xd5, 0x2a, 0xbe,
  0x04, 0x61, 0x84, 0xbe, 0x21, 0x85, 0x10, 0xbe, 0x87, 0xf9, 0xa0, 0xbe,
  0xfe, 0x43, 0xa3, 0xbd, 0x86, 0x9b, 0x8a, 0xbe, 0x3b, 0xcd, 0x93, 0xbc,
  0xf9, 0x21, 0x28, 0xbd, 0xf5, 0x93, 0x8a, 0x3d, 0x9a, 0x81, 0x75, 0xbe,
  0x40, 0xae, 0x51, 0x3d, 0x54, 0x1d, 0x8f, 0xbe, 0xe7, 0xa8, 0xcc, 0xbe,
  0x43, 0x7b, 0x59, 0x3c, 0xc6, 0x89, 0x8e, 0xbd, 0xfe, 0x47, 0xaf, 0xbe,
  0xa8, 0xf9, 0xaa, 0x3d, 0x07, 0x03, 0xbc, 0xbe, 0x6d, 0xb2, 0xb2, 0x3c,
  0x8a, 0xd1, 0xaa, 0xbe, 0x83, 0x39, 0x2b, 0xbd, 0x2f, 0xf3, 0x3c, 0xbd,
  0xdb, 0x30, 0x5a, 0xbc, 0xd9, 0x88, 0x88, 0xbd, 0x31, 0x6c, 0x96, 0xbd,
  0x56, 0x16, 0x88, 0xbe, 0x64, 0x25, 0x1d, 0xbe, 0x4e, 0x6e, 0x91, 0xbe,
  0x96, 0x79, 0xc4, 0xbe, 0x74, 0x76, 0xbb, 0xbc, 0x45, 0xa2, 0xee, 0xbd,
  0x06, 0x8c, 0x78, 0xbe, 0x35, 0xe7, 0x8b, 0xbe, 0x6a, 0x6f, 0x8f, 0xbe,
  0x01, 0x0b, 0x08, 0x3d, 0xd7, 0x7e, 0xac, 0xbe, 0x5f, 0xca, 0x2d, 0xbe,
  0x5a, 0x92, 0x9f, 0x3d, 0xb9, 0xcf, 0xc2, 0xbb, 0xbe, 0x4a, 0x69, 0xbd,
  0x6f, 0x91, 0x11, 0xbe, 0x8f, 0x96, 0x94, 0xbd, 0xa9, 0x1a, 0x6f, 0xbe,
  0xe2, 0xe3, 0x06, 0xbf, 0x36, 0x1b, 0xf9, 0xbe, 0xbc, 0xf1, 0x4c, 0xbe,
  0x9b, 0x63, 0xb8, 0xbe, 0xb2, 0xb1, 0xb9, 0xbe, 0xad, 0x9f, 0xf0, 0xbc,
  0xa6, 0xe4, 0xa0, 0xbe, 0x92, 0x7b, 0x8a, 0xbe, 0x29, 0x52, 0xa8, 0xbe,
  0x0b, 0xf8, 0x21, 0x3d, 0xc4, 0xa2, 0x34, 0xbc, 0xf6, 0xbc, 0x4a, 0x3c,
  0x49, 0xbe, 0x28, 0xbe, 0x5c, 0x1c, 0x1c, 0x3e, 0x4d, 0xf5, 0xef, 0xbe,
  0xb9, 0xff, 0xce, 0xbe, 0x4a, 0xca, 0x2c, 0xbe, 0x1c, 0xe3, 0xee, 0xbe,
  0xb4, 0xd6, 0x84, 0xbe, 0x2c, 0x92, 0xa5, 0xbe, 0x68, 0xa1, 0x2d, 0xbe,
  0x56, 0x6e, 0x9b, 0xbd, 0x64, 0xac, 0x11, 0xbc, 0xa8, 0x33, 0x9f, 0xbc,
  0x28, 0xcb, 0x8e, 0xbe, 0x5b, 0x58, 0x33, 0x3d, 0xc5, 0xbe, 0x05, 0xbe,
  0xd7, 0x44, 0x8a, 0xbd, 0xa3, 0x33, 0x87, 0x3e, 0x07, 0xc5, 0x3a, 0x3e,
  0x17, 0xd2, 0xa7, 0xbe, 0x15, 0x8e, 0xf0, 0x39, 0x34, 0x0a, 0x52, 0x3d,
  0x6c, 0x37, 0x25, 0xbe, 0x36, 0x47, 0x47, 0x3e, 0x3a, 0xd8, 0x1d, 0xbe,
  0x66, 0xca, 0x08, 0x3e, 0xc3, 0xd1, 0x5b, 0x3e, 0x62, 0x8a, 0x29, 0x3e,
  0x1a, 0x06, 0xf0, 0xbd, 0x13, 0x29, 0x0c, 0xbc, 0xf1, 0xaa, 0x52, 0x3e,
  0x8b, 0x89, 0x0e, 0xbe, 0x9a, 0x71, 0x0b, 0x3d, 0xc1, 0x1e, 0x1a, 0xbf,
  0x6a, 0x41, 0xd1, 0xbe, 0x54, 0x5f, 0x3c, 0x3e, 0x85, 0x3b, 0x6a, 0xbe,
  0x60, 0x12, 0xdd, 0x3c, 0x12, 0xe4, 0x0c, 0x3e, 0x16, 0xcb, 0x8c, 0xbe,
  0x10, 0x18, 0xf6, 0x3d, 0x46, 0x80, 0x8d, 0xbe, 0x37, 0x5d, 0xbe, 0xbc,
  0x4a, 0x0f, 0x20, 0x3e, 0x83, 0xa1, 0x85, 0xbe, 0x11, 0xa0, 0x2d, 0x3c,
  0xbc, 0xae, 0x8c, 0xbe, 0x0b, 0xe4, 0x25, 0x40, 0x5b, 0x7a, 0xd0, 0xbc,
  0x20, 0x40, 0x33, 0x3c, 0x3f, 0x13, 0x07, 0xbd, 0x2e, 0xe5, 0x1c, 0xbd,
  0xfb, 0xe7, 0x85, 0xbe, 0xb2, 0x14, 0xad, 0x3e, 0x94, 0x1c, 0xf3, 0xbd,
  0x4f, 0xda, 0xde, 0xbe, 0xeb, 0x53, 0x8e, 0x3d, 0xe8, 0x22, 0x60, 0xbc,
  0x4e, 0x66, 0x0e, 0x3c, 0xf9, 0xb1, 0x09, 0x3e, 0x0b, 0x30, 0x2d, 0xbd,
  0xdf, 0x5c, 0x10, 0x3c, 0x07, 0xe5, 0xbc, 0x3d, 0xbc, 0x9d, 0x5c, 0x40,
  0xa2, 0xbe, 0xf2, 0xbb, 0xfb, 0x34, 0x75, 0x3d, 0xcd, 0xd0, 0xd1, 0xbd,
  0xe3, 0xb3, 0x27, 0x3d, 0xdd, 0xce, 0x28, 0xbe, 0x63, 0x08, 0x91, 0x3e,
  0x1d, 0x29, 0x06, 0xbc, 0xfd, 0x80, 0x78, 0xbe, 0x11, 0x5e, 0x3d, 0x3e,
  0xe9, 0x5d, 0xaa, 0xbe, 0xb5, 0x8c, 0xb9, 0xbe, 0x18, 0xd6, 0xc8, 0x3e,
  0xc3, 0xef, 0x73, 0xbe, 0x8a, 0x1c, 0x1b, 0xbd, 0x23, 0x55, 0xbd, 0x3e,
  0x68, 0x42, 0x40, 0x40, 0x29, 0x5b, 0x10, 0xbd, 0x6e, 0x8e, 0x95, 0xbc,
  0x82, 0x35, 0xde, 0xbe, 0x81, 0x14, 0xdc, 0x3c, 0x91, 0x03, 0x2b, 0xbb,
  0xe9, 0x6f, 0x56, 0x3e, 0x37, 0x6c, 0x65, 0x3e, 0xd5, 0xc0, 0x89, 0xbe,
  0x47, 0x20, 0xa7, 0x3e, 0x52, 0x82, 0x2e, 0xbe, 0xe8, 0xcc, 0x04, 0xbf,
  0x7c, 0x4a, 0x89, 0x3e, 0xe5, 0x4c, 0x36, 0xbe, 0x0e, 0x68, 0x1e, 0xbd,
  0xe7, 0x6c, 0x87, 0x3d, 0x88, 0xc4, 0x58, 0x40, 0xd0, 0x8e, 0x34, 0x3c,
  0xa0, 0x75, 0x0f, 0xbe, 0xb6, 0x51, 0xf5, 0xbe, 0x06, 0xcc, 0xf4, 0xbd,
  0x66, 0x01, 0xdc, 0xbd, 0x9e, 0xb6, 0x18, 0x3e, 0xea, 0xe9, 0x2e, 0x3e,
  0x11, 0x83, 0x03, 0xbe, 0xd0, 0x27, 0x96, 0x3e, 0x08, 0xad, 0xeb, 0xbe,
  0xa7, 0xbb, 0x4f, 0xbe, 0x88, 0xef, 0x3c, 0x3d, 0x58, 0xcc, 0x94, 0xbe,
  0x47, 0x8c, 0xb2, 0xbc, 0x19, 0x3c, 0x21, 0x3f, 0x27, 0xba, 0x55, 0x40,
  0x63, 0xeb, 0x3a, 0x3d, 0xd9, 0x8c, 0x21, 0xbe, 0x37, 0x88, 0x9f, 0xbe,
  0x06, 0x37, 0x4d, 0xbd, 0xe7, 0x9f, 0xbd, 0xbe, 0x17, 0xe6, 0xa9, 0x3d,
  0xb4, 0xd2, 0x7e, 0x3e, 0x38, 0x43, 0xff, 0xbe, 0x29, 0xb2, 0x25, 0x3e,
  0xfa, 0xff, 0xda, 0xbe, 0xfe, 0x9f, 0x89, 0xbe, 0x96, 0x5e, 0x4d, 0x3e,
  0x3d, 0xb8, 0x58, 0xbd, 0x39, 0x3d, 0x7e, 0x3b, 0xa5, 0x67, 0x41, 0xbe,
  0x86, 0xa2, 0x65, 0x40, 0x89, 0x0b, 0x30, 0x3c, 0x89, 0x91, 0xb0, 0xbd,
  0x0b, 0x15, 0x81, 0xbe, 0x0f, 0x8d, 0x81, 0xbd, 0xe7, 0xf6, 0x9b, 0xbe,
  0xb2, 0x7e, 0x00, 0x3e, 0x64, 0x6d, 0x67, 0x3d, 0x5f, 0x0e, 0xb4, 0xbe,
  0xc6, 0x15, 0x92, 0x3c, 0x45, 0xb7, 0x40, 0xbe, 0x00, 0x0f, 0x1c, 0x3d,
  0xfb, 0x09, 0x5b, 0xbb, 0x8a, 0x12, 0x28, 0xbe, 0xae, 0x03, 0x93, 0xbc,
  0x55, 0xcb, 0x25, 0xbe, 0x93, 0x49, 0xb6, 0x3d, 0x9f, 0xbb, 0xf8, 0xbe,
  0x16, 0x69, 0xe3, 0xbe, 0x84, 0x96, 0x5b, 0xbe, 0x99, 0xcb, 0x8a, 0x3c,
  0x57, 0xe3, 0x48, 0x3e, 0xcb, 0x61, 0x89, 0x3d, 0x71, 0x02, 0x9e, 0xbd,
  0x13, 0xc9, 0xc7, 0x3d, 0x0c, 0xc1, 0xb2, 0xbd, 0xef, 0xa0, 0x91, 0x3b,
  0xec, 0x46, 0x93, 0xbe, 0x74, 0x84, 0xc9, 0x3d, 0xec, 0xf2, 0x01, 0x3f,
  0xc7, 0x42, 0xc4, 0xbd, 0x40, 0x5d, 0x20, 0xbe, 0xb2, 0xda, 0xd5, 0xbd,
  0x0e, 0x6b, 0x7f, 0xbf, 0x5f, 0xa1, 0xfe, 0xbe, 0xdd, 0x2c, 0x1d, 0xbe,
  0x25, 0xba, 0xb7, 0xbd, 0x18, 0x3a, 0x7c, 0x3d, 0xfc, 0xa8, 0x11, 0x3d,
  0x69, 0x48, 0x1f, 0xbe, 0xf3, 0x62, 0x7b, 0x3e, 0xa3, 0xa1, 0x45, 0x3d,
  0xd5, 0x95, 0xa5, 0x3e, 0xd8, 0x4c, 0x5f, 0x3e, 0x1f, 0x23, 0x56, 0xbe,
  0xe2, 0xc4, 0x76, 0x3e, 0x14, 0xdf, 0x73, 0xbc, 0x52, 0xba, 0x6a, 0x3e,
  0x50, 0xf9, 0x90, 0xbc, 0xd7, 0x0d, 0x53, 0xbf, 0xa5, 0x68, 0x1a, 0xbf,
  0x73, 0x55, 0xee, 0xbb, 0x64, 0x86, 0xd7, 0x3e, 0xd5, 0x7a, 0xfe, 0x3d,
  0xfe, 0x24, 0x5e, 0xbd, 0x45, 0xdd, 0xaf, 0xbd, 0xb8, 0x08, 0xcb, 0x3e,
  0x50, 0x51, 0x10, 0x3e, 0xa5, 0xf2, 0x7c, 0x3e, 0xd4, 0xb6, 0x77, 0x3e,
  0x30, 0x33, 0x62, 0xbe, 0x54, 0xd4, 0x77, 0x3c, 0x32, 0x53, 0xad, 0x3a,
  0xb0, 0x06, 0x52, 0x3e, 0xbd, 0xdb, 0x95, 0xbd, 0x6c, 0xdf, 0x23, 0xbf,
  0x0f, 0x98, 0xe6, 0xbe, 0xdc, 0x14, 0x44, 0x3a, 0xed, 0x9f, 0xef, 0x3e,
  0x8c, 0xa7, 0xf5, 0x3d, 0xb1, 0xae, 0x44, 0x3c, 0x12, 0xc9, 0xdf, 0xbd,
  0xa5, 0xd3, 0xc3, 0x3e, 0x71, 0x79, 0xa1, 0xbd, 0x5a, 0x2a, 0x51, 0x3e,
  0x8d, 0x71, 0xd1, 0x3d, 0xa3, 0x93, 0x1b, 0x3e, 0x30, 0x8e, 0xb9, 0x3e,
  0xe2, 0xe0, 0xb5, 0xb9, 0x88, 0x96, 0xc1, 0x3e, 0x1f, 0x1a, 0x40, 0x3e,
  0x28, 0x0e, 0x27, 0xbf, 0x57, 0xae, 0x11, 0xbf, 0xac, 0xc1, 0xbb, 0xbe,
  0xd8, 0xe8, 0x62, 0x3f, 0x41, 0x43, 0x2a, 0x3e, 0x42, 0x85, 0x3d, 0x3e,
  0x09, 0xb5, 0xf5, 0x3d, 0xcd, 0x67, 0x89, 0x3e, 0x1a, 0x26, 0x9a, 0x3c,
  0x92, 0xda, 0x4a, 0x3e, 0xcf, 0xb5, 0x78, 0xbd, 0xa6, 0xd6, 0x43, 0xbc,
  0xb0, 0x2f, 0xbf, 0x3e, 0xd9, 0x36, 0xdb, 0x3c, 0xc3, 0x78, 0x3b, 0xbc,
  0x30, 0x03, 0x07, 0x3e, 0x81, 0x09, 0xd8, 0xbe, 0xc2, 0x4d, 0x98, 0xbe,
  0xe0, 0x91, 0x18, 0xbe, 0xdf, 0x7f, 0x46, 0x3f, 0xd1, 0x7b, 0xaa, 0x3d,
  0xfd, 0x22, 0xe1, 0x3c, 0xdf, 0xf4, 0x17, 0x3d, 0x79, 0xa3, 0x79, 0x3e,
  0x05, 0xb9, 0x84, 0xbd, 0x0c, 0xfc, 0xb4, 0x3d, 0xa7, 0x17, 0x80, 0x3d,
  0x0a, 0x76, 0xa6, 0x3c, 0xbc, 0x39, 0xa3, 0x3e, 0xa5, 0x65, 0x3a, 0xbc,
  0xc6, 0x06, 0x97, 0xbd, 0xb7, 0x88, 0x22, 0x3e, 0x95, 0x61, 0x09, 0xbe,
  0x0f, 0x4f, 0x8f, 0xbc, 0x5f, 0x77, 0x76, 0xbd, 0xda, 0x27, 0x1c, 0xbf,
  0x26, 0xb3, 0xc9, 0xbb, 0xaa, 0x2a, 0xcb, 0x3d, 0x1d, 0xb2, 0x08, 0xbe,
  0x43, 0x06, 0x27, 0x3e, 0x42, 0x8a, 0xf5, 0x3c, 0xc9, 0xba, 0xcb, 0x3d,
  0x7b, 0x6a, 0xb0, 0x3d, 0x28, 0x43, 0x81, 0x3d, 0xcd, 0xf3, 0xfe, 0x3e,
  0xcf, 0xbd, 0x92, 0x3d, 0xdf, 0xc8, 0x95, 0xbd, 0x8e, 0xad, 0x17, 0x3e,
  0x6b, 0x94, 0x79, 0xbc, 0xc9, 0x64, 0x86, 0x3e, 0x0f, 0x33, 0xe6, 0x3d,
  0xc0, 0x26, 0x57, 0xbe, 0x43, 0xac, 0x3a, 0x3e, 0xbf, 0xfe, 0x13, 0x3e,
  0x46, 0x4a, 0x1f, 0xbd, 0x89, 0xb2, 0x6b, 0x3e, 0x8b, 0xc4, 0xa3, 0x3d,
  0x1b, 0xe1, 0x89, 0x3e, 0x19, 0xd3, 0x8e, 0x3d, 0x04, 0xa6, 0xae, 0xbd,
  0xfd, 0x58, 0x00, 0xbe, 0xe1, 0xda, 0x28, 0xbe, 0xa5, 0x49, 0x9a, 0x3e,
  0x9c, 0xba, 0x60, 0x3e, 0x53, 0xb2, 0xa4, 0xbd, 0xc5, 0xf3, 0xac, 0xbc,
  0xb3, 0x11, 0x75, 0xbe, 0xa8, 0x91, 0xd2, 0xbc, 0x2e, 0xd1, 0x23, 0x3d,
  0x2e, 0xd4, 0x82, 0xbe, 0x9f, 0xd2, 0xb7, 0x3e, 0xa9, 0x5a, 0x87, 0x3c,
  0x7b, 0x7b, 0xae, 0x3d, 0xd7, 0x23, 0x45, 0xbe, 0x7b, 0x9c, 0xdf, 0xbe,
  0x35, 0xa6, 0x50, 0x3e, 0x5d, 0x4b, 0xf4, 0xbd, 0xc6, 0xe1, 0x0a, 0xbe,
  0x97, 0x63, 0x4d, 0xbb, 0x64, 0x4f, 0x52, 0xbe, 0x2d, 0x17, 0x4b, 0xbd,
  0xc9, 0xf7, 0xc6, 0xbd, 0x25, 0x20, 0x98, 0xbe, 0x0c, 0x1c, 0x0d, 0xbd,
  0xb5, 0x23, 0xc0, 0xbe, 0xc7, 0xa3, 0x25, 0xbf, 0x08, 0x95, 0x6e, 0xbe,
  0xcf, 0xd0, 0x81, 0xbe, 0x3b, 0x93, 0x2d, 0x3e, 0xdf, 0x7f, 0x13, 0xbe,
  0xaf, 0xce, 0xbb, 0xbe, 0x31, 0x8f, 0x32, 0xbe, 0x4b, 0xa3, 0x82, 0xbe,
  0x2f, 0x5d, 0x36, 0xbe, 0x38, 0x0b, 0x93, 0xbd, 0xd2, 0xde, 0x3c, 0xbe,
  0xec, 0x62, 0x1b, 0xbd, 0x37, 0xb6, 0x8a, 0xbd, 0xa0, 0x7f, 0xa6, 0xbe,
  0x82, 0xcb, 0x44, 0xbe, 0x35, 0x68, 0x96, 0xbe, 0x54, 0x9c, 0x6d, 0xbf,
  0xc7, 0xaf, 0xe3, 0xbe, 0xa1, 0x82, 0x50, 0xbe, 0xca, 0x25, 0x2d, 0xbf,
  0x65, 0xa0, 0xb0, 0xbe, 0xcc, 0x33, 0x18, 0xbf, 0x56, 0x04, 0x27, 0xbf,
  0x44, 0xb5, 0xb6, 0xbe, 0x72, 0x4d, 0x3a, 0xbe, 0x26, 0xf4, 0x1e, 0xbe,
  0x7d, 0x5e, 0x2f, 0xbe, 0x44, 0xb6, 0xe4, 0xbc, 0x0a, 0x99, 0x98, 0xbd,
  0xec, 0xfc, 0x55, 0x3e, 0xa0, 0x95, 0xd9, 0xbe, 0xe5, 0x70, 0xb8, 0xbe,
  0xb4, 0xaf, 0xb9, 0xbd, 0x2b, 0xbf, 0xf6, 0xbe, 0x0a, 0xf1, 0x2d, 0xbe,
  0x0e, 0xeb, 0x05, 0xbf, 0x5e, 0x55, 0x8a, 0x3d, 0xe5, 0x07, 0x4c, 0xbe,
  0xa1, 0x6b, 0x12, 0x3e, 0xc9, 0xa6, 0x60, 0xbc, 0x0f, 0xef, 0x6a, 0xbe,
  0x70, 0xd1, 0x66, 0xbe, 0x71, 0xe3, 0x7b, 0x3d, 0xf9, 0x5d, 0x98, 0xbd,
  0xfa, 0xb4, 0x0f, 0x3d, 0xeb, 0xa6, 0x08, 0x3e, 0x20, 0x46, 0x02, 0xbf,
  0x87, 0xea, 0xc8, 0x3d, 0x58, 0xe9, 0x78, 0xbc, 0x58, 0x46, 0x96, 0xbd,
  0x71, 0x51, 0xe9, 0x3d, 0x8f, 0x69, 0x62, 0x3d, 0x81, 0x42, 0x9e, 0x3e,
  0x27, 0xee, 0x9d, 0xbc, 0xc0, 0xfa, 0xa0, 0xbc, 0xd3, 0x77, 0xa0, 0xbe,
  0x95, 0xec, 0xf8, 0xbd, 0x81, 0x45, 0xf1, 0x3e, 0x50, 0x5f, 0xfa, 0xbd,
  0x55, 0x81, 0x9a, 0xbd, 0x50, 0x83, 0x21, 0xbe, 0xf9, 0x1b, 0x31, 0x3e,
  0x58, 0x92, 0xcd, 0x3d, 0xcb, 0xa4, 0x97, 0x3d, 0x20, 0x20, 0x19, 0x3e,
  0x19, 0x21, 0xad, 0x3d, 0x59, 0x7e, 0x04, 0x3e, 0xbb, 0x52, 0x7b, 0x3d,
  0x45, 0xaf, 0x4c, 0xbd, 0xa3, 0x1d, 0xd2, 0xba, 0x13, 0x5b, 0x6e, 0x3c,
  0x9c, 0x03, 0x4d, 0xbe, 0xef, 0x5c, 0xa5, 0xbd, 0x83, 0xde, 0xc4, 0x3d,
  0x77, 0x30, 0x14, 0x3e, 0xd3, 0xe8, 0xe7, 0x3c, 0x03, 0xfe, 0x4c, 0x3d,
  0x09, 0x63, 0x41, 0x3e, 0xe0, 0xd3, 0x56, 0x3e, 0x33, 0x27, 0xdd, 0xbe,
  0x19, 0x91, 0x43, 0xbe, 0xad, 0x03, 0xce, 0xbe, 0x17, 0xb2, 0xb6, 0xbe,
  0x1c, 0x26, 0x21, 0xbf, 0xfd, 0xf8, 0x03, 0xbf, 0x20, 0x00, 0x95, 0xbe,
  0xf1, 0x5b, 0x90, 0xbe, 0xab, 0x96, 0x08, 0xbe, 0x23, 0x14, 0x1d, 0x3d,
  0x54, 0x23, 0x9d, 0x3e, 0xbf, 0x8e, 0x04, 0xbe, 0x57, 0xf3, 0x0f, 0x3d,
  0x64, 0xb3, 0x0f, 0xbc, 0xc2, 0x16, 0x1b, 0x3f, 0xf4, 0xe8, 0xfc, 0x3d,
  0x17, 0xb1, 0x8c, 0xbd, 0x13, 0x5a, 0x4f, 0xbe, 0x88, 0x26, 0xa3, 0xbc,
  0x3e, 0xe8, 0xfd, 0x3c, 0x16, 0x74, 0xba, 0xbe, 0x34, 0xd4, 0x47, 0xbe,
  0x64, 0x77, 0x60, 0x3d, 0xd8, 0x0e, 0x11, 0xbf, 0xfe, 0x75, 0x56, 0x3e,
  0xc0, 0x8e, 0x5d, 0x3d, 0x2c, 0x40, 0xe0, 0xbc, 0x42, 0x42, 0xb8, 0xbe,
  0x35, 0x0d, 0xc7, 0xbc, 0x73, 0x14, 0xa5, 0xbb, 0xaf, 0x60, 0x1d, 0x3f,
  0x80, 0x97, 0x6a, 0x3e, 0x3f, 0x4c, 0xd1, 0xbd, 0xf6, 0x34, 0xcf, 0xbd,
  0x37, 0x22, 0x88, 0xbd, 0xc9, 0xdf, 0x13, 0xbe, 0x5b, 0xdd, 0x5f, 0xbe,
  0x87, 0x65, 0x2c, 0xbe, 0x73, 0xc4, 0x37, 0x3e, 0x34, 0xd6, 0x33, 0xbe,
  0xaf, 0x9d, 0x05, 0xbe, 0x4b, 0x8b, 0xac, 0x3d, 0xdb, 0x73, 0x61, 0x3d,
  0xe0, 0x4a, 0xd1, 0xbe, 0xa1, 0x32, 0xcf, 0x3c, 0xf4, 0x55, 0xf5, 0x3c,
  0xdc, 0x23, 0x16, 0x3f, 0xfd, 0x0a, 0x28, 0x3e, 0x8d, 0x66, 0xeb, 0x3c,
  0x28, 0xc6, 0x08, 0xbe, 0x2e, 0x2e, 0xd1, 0x3b, 0x63, 0x16, 0x96, 0x3c,
  0xfc, 0xac, 0xe8, 0xbd, 0xa2, 0xf6, 0x8f, 0x3d, 0x02, 0x29, 0xdc, 0x3e,
  0x2b, 0x02, 0xcb, 0xbd, 0xb1, 0x0f, 0x45, 0x3e, 0xee, 0xcf, 0x8b, 0x3d,
  0x33, 0x63, 0xba, 0xbd, 0x54, 0x24, 0xf1, 0xbe, 0x98, 0x85, 0xa4, 0xbc,
  0x56, 0x1a, 0x93, 0x3d, 0x65, 0x3f, 0x07, 0x3f, 0x6a, 0x32, 0x73, 0x3e,
  0x19, 0x3f, 0x04, 0xbe, 0xa6, 0x03, 0x41, 0xbe, 0x25, 0x67, 0x4b, 0xbe,
  0x3e, 0x22, 0x91, 0xbd, 0x0f, 0xc9, 0x34, 0xbe, 0x67, 0xfe, 0x17, 0xbe,
  0x83, 0xd7, 0xc5, 0x3e, 0x5a, 0xcc, 0x20, 0xbe, 0x8f, 0x59, 0x37, 0x3c,
  0xf6, 0x0f, 0x30, 0x3d, 0x59, 0xf6, 0x87, 0x3e, 0x1b, 0x82, 0x0a, 0xbf,
  0x58, 0xc1, 0xa8, 0x3b, 0x3e, 0xd7, 0x1e, 0x3d, 0xf4, 0xd3, 0xc4, 0x3e,
  0xed, 0xe0, 0xbe, 0x3e, 0xba, 0x53, 0x65, 0xbe, 0xe5, 0x16, 0x00, 0xbf,
  0x5f, 0x83, 0xc3, 0xbe, 0x14, 0x94, 0x5b, 0xbd, 0xb3, 0x7d, 0x0d, 0xbe,
  0x0d, 0xde, 0xf2, 0xbd, 0x58, 0x6c, 0xa9, 0x3d, 0x44, 0x1b, 0xcc, 0xbe,
  0x05, 0x75, 0x84, 0xbe, 0x3a, 0xf7, 0x5b, 0x3d, 0x0c, 0x9e, 0xae, 0x3a,
  0x5f, 0x74, 0x84, 0xbe, 0xcc, 0x79, 0xe8, 0x3c, 0xa5, 0x7d, 0xd2, 0xbc,
  0x86, 0x51, 0x84, 0x3d, 0x72, 0x9a, 0xfd, 0x3d, 0xc8, 0xe1, 0xf9, 0x3c,
  0x07, 0xab, 0xc1, 0xbe, 0x53, 0x1a, 0x8e, 0xba, 0xff, 0x12, 0x41, 0xbe,
  0xe2, 0x46, 0xc1, 0xbd, 0x67, 0xb8, 0x1d, 0x3d, 0x45, 0x22, 0xb0, 0xbe,
  0x6b, 0x05, 0x3e, 0xbe, 0xee, 0xb6, 0x84, 0xbd, 0x78, 0x40, 0x07, 0x3c,
  0x6b, 0xf6, 0xd2, 0x3d, 0xaf, 0x4c, 0xa8, 0x3e, 0xa0, 0xa0, 0x6e, 0xbd,
  0x1c, 0x9e, 0x05, 0xbe, 0x89, 0xac, 0xd1, 0xbd, 0xf0, 0x8e, 0x78, 0xbd,
  0xce, 0xa5, 0x0a, 0xbe, 0x70, 0xd4, 0x8c, 0xbd, 0x1d, 0xbe, 0x66, 0xbe,
  0x41, 0x11, 0x1c, 0xbe, 0xb1, 0x07, 0x7f, 0xbe, 0x4b, 0x87, 0xa6, 0xbd,
  0xf1, 0x0d, 0x33, 0x3d, 0x6e, 0x3a, 0xf5, 0xbc, 0x8f, 0x46, 0xfa, 0x3d,
  0x48, 0x11, 0x49, 0xbd, 0xd0, 0x09, 0xf7, 0xbc, 0xb0, 0xed, 0x6f, 0xbd,
  0xf3, 0x2b, 0xab, 0xbd, 0xda, 0xbc, 0x18, 0xbe, 0x42, 0xbd, 0xdc, 0xbd,
  0x8e, 0x2c, 0x7c, 0x3d, 0x49, 0x59, 0x39, 0xbe, 0x6f, 0xb4, 0x2f, 0xbe,
  0x81, 0xd3, 0x73, 0xbe, 0xf7, 0x8e, 0xde, 0xbb, 0xd7, 0x8a, 0x9b, 0xbd,
  0x2e, 0xae, 0xf2, 0xbd, 0x3b, 0x8d, 0xce, 0xbc, 0x37, 0x9d, 0x2a, 0xbe,
  0xc6, 0x80, 0x43, 0xbd, 0x5a, 0xfe, 0x1b, 0xbd, 0xf6, 0x06, 0xfd, 0xbd,
  0xac, 0xeb, 0xec, 0x3d, 0xc2, 0x54, 0x7f, 0xbe, 0xaa, 0x03, 0x81, 0xba,
  0xb7, 0xdc, 0x3a, 0xbe, 0x5e, 0x18, 0xfe, 0x3d, 0x10, 0xa3, 0x56, 0xbe,
  0xdd, 0x95, 0x99, 0xbe, 0xb9, 0x6c, 0x74, 0xbe, 0xbf, 0x72, 0x77, 0xbe,
  0x18, 0x8b, 0x22, 0xbc, 0x22, 0x2d, 0xe7, 0x3c, 0xcb, 0xa8, 0x1d, 0x3e,
  0xc7, 0xf9, 0xfe, 0xbd, 0x42, 0xf7, 0x90, 0xbd, 0x43, 0xb6, 0x3d, 0xbe,
  0x3f, 0x27, 0x2b, 0x3e, 0x10, 0xe0, 0xe5, 0x3c, 0xd7, 0xc6, 0x5d, 0x3d,
  0x6f, 0x88, 0x07, 0xbe, 0x3b, 0xbf, 0xdb, 0x3d, 0xa5, 0xd5, 0x6c, 0x3d,
  0xc2, 0xd7, 0x39, 0xbd, 0x8a, 0x90, 0x96, 0xbd, 0xb3, 0x7c, 0x4a, 0xbe,
  0xa3, 0x3f, 0x6b, 0x3d, 0xd0, 0x0e, 0xb2, 0x3d, 0xa6, 0xf1, 0xab, 0x3d,
  0x60, 0x10, 0x01, 0xbe, 0x2f, 0x98, 0x48, 0x3d, 0x0b, 0xfe, 0xda, 0xbd,
  0x03, 0xa0, 0x44, 0xbe, 0x6e, 0x2f, 0x07, 0x3e, 0x06, 0x58, 0x18, 0x3d,
  0xa9, 0x3b, 0x70, 0xbe, 0x41, 0x62, 0x0b, 0x3d, 0x21, 0xb8, 0x27, 0xbe,
  0xfb, 0x44, 0x19, 0x3e, 0xf2, 0x43, 0xd0, 0xbd, 0x78, 0xa9, 0x59, 0x3c,
  0xb5, 0x2f, 0x7b, 0xbd, 0x3d, 0xe5, 0x88, 0xbe, 0x94, 0x2a, 0xc5, 0xbc,
  0xa5, 0x7f, 0xa8, 0xbd, 0xa0, 0xcb, 0x1c, 0xbd, 0x60, 0x12, 0x99, 0xbd,
  0x02, 0xca, 0x74, 0x3d, 0xae, 0x4e, 0xda, 0xbd, 0x94, 0x56, 0xbe, 0xbd,
  0xa0, 0x9b, 0x10, 0x3d, 0x79, 0xc0, 0x57, 0xbd, 0xcd, 0x18, 0xb4, 0x3a,
  0x84, 0xf6, 0x60, 0x3d, 0x92, 0xb9, 0xed, 0xbd, 0x66, 0x95, 0x66, 0xbe,
  0x8b, 0x18, 0xf8, 0x3c, 0x5c, 0x99, 0x0a, 0xbd, 0x2c, 0xc1, 0x4b, 0xbe,
  0xf7, 0x08, 0x73, 0x3d, 0x0d, 0xb7, 0x57, 0x3d, 0xe3, 0x09, 0x5a, 0xbe,
  0x6f, 0xbf, 0x3a, 0x3d, 0xea, 0x3b, 0x98, 0x3d, 0xa6, 0xe2, 0x3f, 0xbe,
  0x27, 0x9f, 0xa7, 0x3d, 0xbb, 0x29, 0x7b, 0xbe, 0x14, 0xd1, 0x68, 0xbe,
  0x60, 0xb6, 0x91, 0x3d, 0xe2, 0xdb, 0x81, 0xbe, 0x33, 0x55, 0x27, 0xbe,
  0xa5, 0x50, 0x3f, 0xbc, 0x20, 0xf8, 0x5f, 0xbe, 0x8d, 0xff, 0x32, 0xbb,
  0x69, 0x17, 0xf5, 0xbd, 0x7c, 0x4e, 0x13, 0xbe, 0x7c, 0xfa, 0x1a, 0xbe,
  0x02, 0x28, 0xc4, 0x3b, 0x75, 0x94, 0xba, 0xbd, 0x3d, 0x60, 0xd2, 0x3d,
  0x1d, 0x8b, 0x1e, 0xbe, 0x0a, 0x54, 0x81, 0xbc, 0x53, 0x0f, 0xb8, 0xbd,
  0xd9, 0xf5, 0x0d, 0x3d, 0xec, 0xcc, 0x99, 0x3d, 0x30, 0xc9, 0x5c, 0xbd,
  0x34, 0x3f, 0xa3, 0x3e, 0x78, 0x9f, 0x59, 0xbe, 0x2a, 0x2e, 0xd3, 0xbd,
  0xab, 0xdb, 0x66, 0xbe, 0xee, 0x63, 0xeb, 0xbe, 0x95, 0x23, 0x23, 0xbf,
  0x51, 0xff, 0x2a, 0xbf, 0xc1, 0xf0, 0xd7, 0xbe, 0x49, 0xd5, 0x54, 0xbe,
  0xf8, 0xf9, 0x71, 0x3d, 0x48, 0x30, 0x04, 0x3c, 0x90, 0xe6, 0x89, 0x3e,
  0x30, 0xd1, 0x26, 0xbe, 0x7a, 0xf8, 0x65, 0xbc, 0x6c, 0x1f, 0xf0, 0x3d,
  0x28, 0x71, 0x50, 0x3e, 0x14, 0x62, 0x37, 0x3e, 0x5c, 0xdf, 0xec, 0x3d,
  0x0d, 0xf9, 0x4e, 0xbe, 0x35, 0xc8, 0xc0, 0x3e, 0x13, 0x6a, 0x1f, 0x3e,
  0xc7, 0x11, 0xe5, 0xbe, 0x5c, 0x29, 0x4c, 0xbe, 0x95, 0x95, 0x13, 0xbf,
  0x9f, 0xc7, 0xd1, 0xbe, 0xe1, 0x7d, 0x82, 0x3e, 0x72, 0x8c, 0x04, 0x3d,
  0xb4, 0xa9, 0x66, 0x3e, 0x9b, 0x96, 0x03, 0xbf, 0x59, 0x0e, 0x03, 0x3c,
  0x7f, 0xa7, 0x24, 0x3d, 0x22, 0xa7, 0x82, 0xbc, 0x88, 0x8b, 0x10, 0x3e,
  0x59, 0x66, 0x88, 0xbd, 0x4f, 0xf6, 0x07, 0xbe, 0x19, 0x62, 0x64, 0x3e,
  0x6e, 0x92, 0x21, 0x3d, 0x00, 0x74, 0x51, 0xbe, 0x53, 0x29, 0x23, 0xbd,
  0x25, 0x43, 0x31, 0xbe, 0x6a, 0xa8, 0x73, 0xbe, 0x7e, 0xdd, 0x20, 0x3d,
  0x9a, 0xfa, 0x39, 0x3d, 0x3b, 0x3a, 0x83, 0x3d, 0x56, 0xfd, 0xe6, 0xbe,
  0x3d, 0x77, 0xe5, 0x3c, 0xae, 0x18, 0x3f, 0x3d, 0x47, 0x0d, 0xf3, 0x3d,
  0x49, 0xb8, 0x43, 0x3e, 0x86, 0x98, 0x30, 0x3e, 0x46, 0x77, 0x91, 0xbe,
  0x79, 0xdc, 0x94, 0x3e, 0x4f, 0x9c, 0x3b, 0x3e, 0x8e, 0xd9, 0xb8, 0xbe,
  0xc6, 0x7a, 0x0e, 0x3e, 0xcb, 0x56, 0x06, 0xbe, 0x3b, 0x34, 0x6a, 0xbc,
  0xbf, 0x34, 0x3c, 0x3e, 0x96, 0x02, 0x80, 0x3d, 0xbc, 0x83, 0xdc, 0x3e,
  0x14, 0xc8, 0x03, 0xbf, 0xa1, 0xf4, 0x16, 0x3c, 0x69, 0x73, 0x47, 0x3d,
  0x3c, 0x74, 0x21, 0xbe, 0xa8, 0xf0, 0x6f, 0x3e, 0xae, 0x86, 0xa0, 0x3c,
  0x98, 0x59, 0xfa, 0xbd, 0x57, 0x59, 0x2b, 0x3d, 0x5d, 0x60, 0xbf, 0x3d,
  0xdb, 0xd1, 0x91, 0xbe, 0x2e, 0x87, 0x4b, 0x3e, 0xe8, 0x6c, 0x3d, 0xbe,
  0x99, 0xbf, 0xd9, 0xbd, 0x8d, 0x7d, 0x23, 0x3e, 0xb6, 0x37, 0x4d, 0x3d,
  0x64, 0xb4, 0x8f, 0x3e, 0x48, 0x5e, 0xff, 0xbe, 0xfa, 0x92, 0xed, 0x3c,
  0x59, 0xee, 0xa1, 0x3d, 0x0d, 0xf9, 0x6e, 0x3d, 0xc8, 0x39, 0x2f, 0x3f,
  0x1a, 0x18, 0x23, 0xbd, 0x55, 0xca, 0x3a, 0xbf, 0x03, 0x2f, 0xf8, 0xbd,
  0x16, 0xe2, 0x6f, 0xbd, 0xf0, 0x5f, 0x88, 0xbe, 0x2b, 0xf1, 0xbf, 0xbd,
  0xde, 0xb9, 0xed, 0xbe, 0x52, 0xb9, 0xc1, 0xbe, 0x86, 0x84, 0x53, 0xbe,
  0x65, 0x86, 0x8a, 0x3d, 0x48, 0x11, 0xb0, 0x3e, 0xc0, 0x2e, 0xcb, 0xbe,
  0x4f, 0x72, 0x80, 0xbc, 0x8b, 0x6a, 0xd0, 0xbd, 0x9b, 0xe0, 0x0f, 0xbd,
  0xb2, 0x4f, 0x2f, 0x3e, 0xc7, 0xa7, 0xd9, 0xbc, 0x39, 0xef, 0xa9, 0xbe,
  0xda, 0x0c, 0x8a, 0x3d, 0x27, 0x89, 0x35, 0xbe, 0x99, 0xbe, 0xef, 0xbd,
  0x35, 0xa8, 0x47, 0x3d, 0x36, 0xbc, 0x12, 0xbf, 0xb2, 0xd6, 0x24, 0xbe,
  0x50, 0xd9, 0xd9, 0xbc, 0xd6, 0x51, 0x8d, 0x3d, 0x04, 0x0a, 0x95, 0xbe,
  0x32, 0x3b, 0xcc, 0x3e, 0xe3, 0xdd, 0x6f, 0xbc, 0x04, 0xcb, 0x3b, 0xbe,
  0x4a, 0x4f, 0x58, 0xbe, 0x8e, 0xe8, 0x8b, 0x3d, 0x20, 0x0b, 0x44, 0xbe,
  0xd0, 0x95, 0x79, 0x3c, 0xcc, 0xd8, 0xa2, 0x3d, 0xd4, 0x65, 0xe7, 0xbe,
  0x48, 0x9e, 0xad, 0x3d, 0xd8, 0xca, 0x7c, 0xbe, 0x6f, 0xc5, 0xcb, 0x3d,
  0xf6, 0x86, 0xf1, 0x3d, 0x78, 0x30, 0x54, 0xbe, 0x28, 0x66, 0xe9, 0x3d,
  0xee, 0x23, 0x8b, 0xbe, 0xe4, 0x75, 0x2b, 0x3e, 0x87, 0x2b, 0xd2, 0xbc,
  0xa5, 0xc4, 0x33, 0x3c, 0x0f, 0x59, 0x94, 0xbe, 0xae, 0x52, 0x4f, 0x3c,
  0x5c, 0x9f, 0x68, 0xbe, 0x94, 0xe0, 0x85, 0x3e, 0x33, 0x16, 0x72, 0xbe,
  0x3c, 0x90, 0xf8, 0xbe, 0x93, 0x96, 0x0f, 0x3d, 0x86, 0x2c, 0x63, 0xbd,
  0xe0, 0x54, 0x9a, 0x3c, 0x64, 0x9c, 0x36, 0x3e, 0xbc, 0x4e, 0x12, 0xbe,
  0x8a, 0x18, 0x35, 0x3b, 0x18, 0x8b, 0xd8, 0xbe, 0xe4, 0xbf, 0x07, 0xbe,
  0x67, 0x1e, 0x9b, 0x3c, 0xac, 0x02, 0xfa, 0x3d, 0x11, 0x27, 0x62, 0xbe,
  0x22, 0x4e, 0x82, 0xbd, 0x07, 0x07, 0x84, 0xbc, 0x1b, 0x03, 0xa9, 0x3e,
  0xa3, 0xbe, 0xce, 0x3c, 0xd4, 0x2b, 0xeb, 0xbd, 0x51, 0xb8, 0xa3, 0x3d,
  0x24, 0x10, 0x98, 0xbd, 0x17, 0x9b, 0xaa, 0xbe, 0x99, 0xe5, 0xcf, 0x3e,
  0xf5, 0x1f, 0x5a, 0xbe, 0x95, 0xde, 0xc0, 0xbd, 0xb9, 0xbc, 0x39, 0x3d,
  0xbb, 0xbe, 0xf6, 0xbd, 0xb4, 0x93, 0xba, 0x3c, 0x90, 0xb5, 0xfb, 0xbc,
  0xe3, 0xd0, 0xe7, 0xbe, 0xb5, 0x0e, 0x16, 0xbe, 0xae, 0x45, 0x46, 0xbe,
  0xfb, 0x79, 0xd0, 0x3e, 0xda, 0xec, 0x91, 0x3e, 0x4b, 0xd4, 0xaa, 0xbe,
  0xe1, 0xa3, 0xab, 0x3e, 0x8c, 0x74, 0xd9, 0xbe, 0x56, 0x10, 0x06, 0xbf,
  0x45, 0x94, 0x2d, 0x3e, 0x8d, 0xf8, 0x81, 0xbe, 0x5c, 0x6d, 0x36, 0xbd,
  0xa9, 0xd2, 0xd7, 0xbd, 0x19, 0x95, 0x99, 0xbc, 0x67, 0x25, 0x47, 0x3b,
  0x48, 0xb6, 0x36, 0xbe, 0x1b, 0x43, 0xb2, 0xbe, 0x03, 0x28, 0x7e, 0xbd,
  0x11, 0x0d, 0xa5, 0xbe, 0x3c, 0xc0, 0x39, 0x3e, 0x68, 0x85, 0x32, 0x3e,
  0x03, 0x22, 0xa4, 0xbe, 0xa3, 0x6e, 0xaf, 0x3e, 0x31, 0x3f, 0xf8, 0xbe,
  0x32, 0x9a, 0xa6, 0xbe, 0xc6, 0x4e, 0x0c, 0x3e, 0x39, 0x6e, 0x79, 0xbe,
  0x49, 0x4f, 0x11, 0xbd, 0xb2, 0x4e, 0xf0, 0x3d, 0x81, 0x6d, 0x70, 0xbe,
  0x7e, 0xc4, 0xaa, 0x3c, 0xc8, 0x22, 0xa3, 0xbd, 0x1d, 0x62, 0xab, 0xbe,
  0x9e, 0x7e, 0x2a, 0xbe, 0x7c, 0xba, 0xad, 0xbe, 0x92, 0xa7, 0xd3, 0x3d,
  0x6f, 0x84, 0x5e, 0x3e, 0xaf, 0x0c, 0xcf, 0xbe, 0x88, 0x10, 0x07, 0x3e,
  0x6b, 0x72, 0xd6, 0xbe, 0x9d, 0xe9, 0xae, 0xbe, 0xa9, 0x3a, 0x32, 0x3e,
  0x15, 0xcf, 0x15, 0xbe, 0x88, 0x9c, 0xdf, 0x3c, 0xf7, 0x6d, 0x39, 0xbe,
  0x56, 0xb6, 0x46, 0xbd, 0x5f, 0xf4, 0x04, 0xbd, 0x8d, 0x5b, 0xd6, 0xbd,
  0xf5, 0xe9, 0x89, 0x3b, 0x3b, 0xba, 0xd5, 0xbd, 0x7f, 0x8f, 0x09, 0xbf,
  0xf5, 0xc3, 0x37, 0x3d, 0x01, 0x61, 0xbd, 0x3d, 0x6c, 0x45, 0x02, 0xbf,
  0x8d, 0x5a, 0x83, 0x3d, 0x61, 0x2b, 0x76, 0xbe, 0xe5, 0x08, 0xc1, 0x3d,
  0x12, 0x31, 0x16, 0xbd, 0x1d, 0x30, 0xd3, 0xbe, 0x5c, 0x28, 0x3e, 0xbd,
  0xfa, 0x82, 0x8d, 0xbd, 0x4c, 0xa7, 0x5b, 0xbe, 0xa8, 0xc9, 0x86, 0xbc,
  0x1f, 0xd7, 0x8b, 0x3c, 0xfc, 0x67, 0xa9, 0xbe, 0xa1, 0xf5, 0x80, 0xbd,
  0x63, 0xc0, 0xac, 0xbe, 0xd7, 0x73, 0xbf, 0xbe, 0x6f, 0xc9, 0x95, 0xbe,
  0xf6, 0x3f, 0x14, 0x3d, 0x02, 0x2d, 0x34, 0xbe, 0x06, 0x08, 0x7a, 0xbd,
  0xa8, 0xcd, 0x16, 0x3e, 0x6d, 0xa4, 0x40, 0xbb, 0x52, 0xcb, 0x86, 0x3d,
  0x27, 0xd6, 0xd7, 0xbe, 0xd8, 0x6a, 0x8a, 0xbe, 0x40, 0x7a, 0xba, 0xbd,
  0x9e, 0xb2, 0x67, 0xbc, 0x9c, 0xac, 0x41, 0x3d, 0xff, 0x25, 0x62, 0x3d,
  0xc6, 0x79, 0x67, 0xbe, 0x78, 0xf6, 0x02, 0x3d, 0x9f, 0x7f, 0x75, 0xbe,
  0x4d, 0x0a, 0x7e, 0xbe, 0x0f, 0x0a, 0xf6, 0xbc, 0x7c, 0x41, 0x38, 0xbe,
  0x07, 0x89, 0xcd, 0xbe, 0x13, 0x18, 0xf8, 0xbc, 0x3e, 0xd6, 0x9c, 0xbe,
  0xe6, 0xa0, 0x59, 0x3d, 0xb6, 0x71, 0xbe, 0xbe, 0xe5, 0x82, 0x79, 0xbe,
  0x09, 0xc3, 0xf0, 0x3d, 0xce, 0x4d, 0x48, 0xbd, 0x77, 0x0a, 0xe9, 0x3d,
  0x14, 0x55, 0x44, 0xbe, 0x0d, 0xf0, 0x6b, 0xbd, 0x76, 0x31, 0xa6, 0xbb,
  0x3a, 0x78, 0x82, 0xbe, 0x4f, 0x1d, 0x38, 0xbe, 0x81, 0x01, 0x8f, 0xbd,
  0x76, 0xa5, 0xce, 0x3d, 0x1c, 0xf9, 0xcc, 0xbe, 0x6e, 0x55, 0x44, 0xbe,
  0xf3, 0x70, 0xb9, 0xbd, 0xd1, 0x5a, 0xc7, 0xbe, 0x83, 0x2f, 0x06, 0xbf,
  0xd6, 0xaf, 0xc1, 0xbd, 0x1e, 0x93, 0x73, 0x3b, 0x17, 0x3f, 0x9a, 0xbd,
  0xd2, 0x28, 0x78, 0xbd, 0xff, 0x99, 0xc8, 0xbe, 0x25, 0xcc, 0x33, 0xbe,
  0x9d, 0x40, 0x88, 0xbe, 0xe7, 0x8c, 0xee, 0xbe, 0xca, 0x38, 0x47, 0xbe,
  0xe6, 0xb9, 0x17, 0xbe, 0x1f, 0xd8, 0x23, 0xbe, 0xb3, 0x99, 0x20, 0xbf,
  0xbf, 0x2b, 0x94, 0xbe, 0xfb, 0x85, 0x37, 0xbe, 0x10, 0x27, 0x94, 0xbd,
  0x88, 0x90, 0xe7, 0xbe, 0x3e, 0xd3, 0x1a, 0xbd, 0xcc, 0x1a, 0x90, 0xbd,
  0xaf, 0xd9, 0xeb, 0xbd, 0xbc, 0xdb, 0xb2, 0xbc, 0xe9, 0x5f, 0xa7, 0x3d,
  0x77, 0x75, 0xb1, 0xbe, 0x0f, 0x0a, 0xf4, 0xbc, 0x16, 0x1e, 0xf1, 0x3a,
  0x1b, 0xd5, 0x90, 0x3d, 0x72, 0xa3, 0x43, 0xbe, 0x95, 0xb3, 0x53, 0xbe,
  0xb6, 0xfe, 0x43, 0x3e, 0x9b, 0x69, 0x00, 0x3e, 0x77, 0x04, 0x31, 0x3e,
  0x24, 0xf4, 0x1e, 0xbe, 0x95, 0x43, 0x71, 0xbe, 0x57, 0x23, 0xbf, 0xbc,
  0x52, 0x5b, 0x8e, 0x3d, 0x4d, 0x09, 0xa0, 0xbe, 0xfc, 0xf5, 0x84, 0x3e,
  0x53, 0xc2, 0x63, 0x3e, 0x52, 0x2b, 0x31, 0xbe, 0xea, 0xf1, 0xad, 0x3d,
  0xf8, 0x65, 0x44, 0x3c, 0x9e, 0xcf, 0x2a, 0xbb, 0x31, 0xe8, 0x6a, 0x3e,
  0x7c, 0x3a, 0x69, 0x3b, 0x08, 0x39, 0x29, 0x3e, 0xa0, 0x33, 0x24, 0xbd,
  0x1b, 0x00, 0x1a, 0x3e, 0x32, 0x99, 0xe2, 0xbd, 0xb9, 0xa3, 0xd3, 0xbd,
  0x2a, 0xcb, 0xa8, 0x3e, 0xbf, 0xb1, 0x0f, 0x3e, 0x40, 0x12, 0x55, 0xbe,
  0x22, 0x19, 0xb5, 0xbe, 0x19, 0xb3, 0x1c, 0xbe, 0x5e, 0x4a, 0x96, 0x3e,
  0xe6, 0xec, 0xec, 0x3d, 0xf2, 0xba, 0x86, 0xbd, 0x5f, 0xa1, 0xe4, 0x3d,
  0x53, 0xd5, 0xb7, 0x3d, 0x7b, 0x53, 0x96, 0x3d, 0x21, 0x23, 0x45, 0xbe,
  0xa1, 0x73, 0x23, 0xbe, 0xf4, 0x04, 0xcd, 0xbd, 0x47, 0x11, 0x9c, 0xbd,
  0x0b, 0xd5, 0xb0, 0xbc, 0x39, 0xc0, 0x6e, 0x3e, 0x4b, 0x3c, 0xb4, 0xbc,
  0x60, 0xc8, 0x04, 0xbe, 0x2f, 0xf7, 0x8e, 0xbe, 0xbf, 0xfe, 0xe6, 0x3c,
  0x64, 0xe4, 0x91, 0x3d, 0x8e, 0x88, 0x32, 0xbe, 0xb4, 0x6a, 0xee, 0xbd,
  0xb7, 0x9a, 0x7e, 0xbe, 0xaf, 0x8f, 0x8f, 0xbe, 0x2e, 0x5f, 0x1a, 0xbe,
  0xd7, 0x9d, 0xc9, 0xbd, 0x97, 0xa5, 0x66, 0x3d, 0xca, 0xe5, 0x8c, 0x3e,
  0xac, 0xb8, 0xdc, 0x3b, 0x35, 0x85, 0xac, 0xbe, 0x85, 0x37, 0xdd, 0x3d,
  0x19, 0xff, 0xd3, 0x3e, 0x41, 0x8d, 0xfb, 0x3c, 0x2f, 0xb0, 0x58, 0xbe,
  0x5f, 0xed, 0x35, 0xbe, 0x52, 0x5f, 0x4a, 0xbe, 0x58, 0x26, 0x43, 0xbe,
  0xb3, 0xaa, 0xf9, 0xbd, 0xa4, 0x7d, 0x79, 0xbe, 0xac, 0x33, 0xd8, 0xbd,
  0x68, 0xa9, 0xec, 0x3c, 0x04, 0xa2, 0x3f, 0xbd, 0x3a, 0x78, 0x5b, 0xbe,
  0xe5, 0x9f, 0x63, 0xbe, 0xb5, 0x35, 0x91, 0xbd, 0xfe, 0x5b, 0x93, 0xbe,
  0x6a, 0xba, 0x5c, 0xbd, 0x04, 0x4e, 0xd1, 0x3e, 0x7b, 0xed, 0x31, 0xbe,
  0x46, 0xda, 0x84, 0xbe, 0xb6, 0xd6, 0x82, 0x3d, 0x60, 0x5e, 0x55, 0x3d,
  0xaa, 0x4d, 0x0c, 0xbe, 0x96, 0x45, 0x5c, 0xbd, 0xaa, 0x7a, 0x99, 0xbe,
  0x4a, 0xef, 0xfc, 0x3d, 0xee, 0x33, 0xa4, 0x3c, 0xc9, 0xa3, 0x81, 0xbd,
  0x06, 0x54, 0x69, 0xbe, 0x45, 0xdb, 0xfc, 0x3e, 0x63, 0x43, 0x50, 0xbe,
  0xf8, 0xc5, 0xd7, 0xbe, 0x57, 0x79, 0x1c, 0x3f, 0x1f, 0x0b, 0xdd, 0x3e,
  0xe4, 0x67, 0xcb, 0xb8, 0xbe, 0xa3, 0x8c, 0xbe, 0xa1, 0x1b, 0x2d, 0xbe,
  0xb0, 0xe7, 0x94, 0xbe, 0x18, 0xe6, 0x49, 0xbe, 0x92, 0x91, 0x2f, 0xbe,
  0x26, 0xe5, 0x41, 0x3d, 0xbb, 0xa9, 0xd8, 0x3d, 0xed, 0x7b, 0xd4, 0xbd,
  0xfb, 0x09, 0xd6, 0x3c, 0xf9, 0xf5, 0xc4, 0x3d, 0x45, 0xda, 0xbe, 0x3d,
  0x1f, 0x16, 0x17, 0xbe, 0x77, 0xfb, 0x82, 0xbe, 0x45, 0x23, 0x08, 0x3f,
  0x8f, 0xb4, 0xab, 0x3e, 0x16, 0x63, 0x3a, 0xbe, 0x4c, 0xc8, 0x8c, 0xbe,
  0xa4, 0x00, 0x1f, 0x3d, 0x8c, 0xf9, 0x19, 0x3d, 0x26, 0xbe, 0x78, 0xbe,
  0x06, 0x5a, 0x1f, 0xbe, 0xfa, 0x1a, 0x78, 0xbd, 0x28, 0xa8, 0x61, 0xbe,
  0x75, 0xc1, 0xf6, 0x3d, 0x68, 0x4f, 0x78, 0xbc, 0x8c, 0x99, 0x29, 0x3d,
  0xb4, 0xab, 0x05, 0x3e, 0x84, 0x60, 0x3d, 0x3e, 0xa3, 0xe5, 0x39, 0xbe,
  0x58, 0xed, 0x34, 0x3f, 0x8f, 0x29, 0xe0, 0x3e, 0x6a, 0x2b, 0x55, 0xbe,
  0x14, 0xc8, 0xd0, 0xbd, 0xcc, 0x88, 0x66, 0xbe, 0x13, 0xdb, 0x18, 0x3d,
  0xb7, 0xff, 0xae, 0xbc, 0x46, 0x6b, 0x54, 0xbe, 0xe7, 0x13, 0xa4, 0xbe,
  0xa0, 0xfc, 0xb7, 0x3d, 0x7f, 0xe4, 0x42, 0xbe, 0x50, 0x3d, 0xec, 0xbd,
  0xaa, 0xee, 0x3d, 0xbe, 0xef, 0xcb, 0x93, 0x3d, 0x36, 0x57, 0x72, 0x3e,
  0x4f, 0x34, 0xb7, 0xbe, 0xf5, 0x7c, 0xe6, 0x3e, 0x89, 0x13, 0x52, 0x3e,
  0xb4, 0x67, 0xe5, 0xbc, 0x41, 0x25, 0x0e, 0xbe, 0x5e, 0x74, 0x81, 0x3c,
  0xf3, 0x97, 0x9a, 0xbe, 0x78, 0x7e, 0x3c, 0xbe, 0x3d, 0x65, 0xd0, 0xbc,
  0xcf, 0x8f, 0x69, 0x3a, 0x5b, 0xeb, 0xde, 0x3c, 0x00, 0xdc, 0x4c, 0xbe,
  0x7f, 0x62, 0x80, 0xbd, 0x89, 0xa4, 0x90, 0xbd, 0xc4, 0xa8, 0x2b, 0x3d,
  0xf8, 0xa3, 0xfb, 0x3d, 0x0c, 0xdf, 0xb5, 0xbe, 0xd2, 0xec, 0xbc, 0x3e,
  0xc5, 0x4d, 0xaa, 0x3c, 0xa6, 0xd3, 0x1d, 0x3e, 0xa3, 0xe2, 0x9a, 0xbc,
  0xb8, 0xe5, 0x8e, 0xbe, 0xd6, 0xba, 0x29, 0x3e, 0xbc, 0xa5, 0xec, 0xbd,
  0x5f, 0x3b, 0x03, 0xbe, 0x15, 0x76, 0x92, 0xbe, 0x22, 0x77, 0x7b, 0xbe,
  0x42, 0xd5, 0x97, 0xbe, 0x80, 0xfb, 0x8d, 0xbe, 0xb6, 0x17, 0xf3, 0xbd,
  0x67, 0x61, 0x1a, 0xbe, 0xff, 0xca, 0x45, 0xbd, 0x9c, 0x98, 0x9b, 0xbc,
  0x75, 0x24, 0x89, 0x3e, 0x1d, 0xea, 0xdf, 0x3d, 0x8f, 0xd2, 0x97, 0x3d,
  0xbe, 0x3d, 0xc5, 0x3d, 0xc0, 0xf1, 0x2a, 0xbe, 0x78, 0x06, 0x63, 0x3d,
  0x62, 0xad, 0xc1, 0xbd, 0x95, 0x81, 0x05, 0x39, 0x5c, 0xce, 0x00, 0x3e,
  0x55, 0xa7, 0xbe, 0x3d, 0x05, 0xf5, 0x91, 0xbe, 0x40, 0xba, 0x3d, 0x3c,
  0x58, 0xe0, 0x50, 0xbe, 0x51, 0xd9, 0xa3, 0xbe, 0xb3, 0x6c, 0x8a, 0xbd,
  0xa7, 0xc6, 0xf9, 0x3c, 0x25, 0xee, 0x47, 0x3e, 0xb8, 0xa8, 0x06, 0xbe,
  0xdc, 0x1a, 0xc1, 0xbb, 0x32, 0x5a, 0x4b, 0x3c, 0x2d, 0x85, 0x6b, 0x3e,
  0x91, 0xeb, 0xb5, 0x3d, 0x10, 0x69, 0x3d, 0xbc, 0x72, 0x77, 0x49, 0xbd,
  0x31, 0xb3, 0xa8, 0xbd, 0x9e, 0x3b, 0x08, 0x3d, 0x0e, 0x10, 0x03, 0xbe,
  0xe9, 0xa7, 0xcd, 0xbd, 0x13, 0x5a, 0xa2, 0xbd, 0x03, 0xe4, 0xab, 0xbc,
  0xc4, 0x36, 0xbb, 0x3d, 0x77, 0x68, 0x22, 0x3e, 0x14, 0x15, 0x63, 0xbe,
  0x48, 0xde, 0x1b, 0xbe, 0x0a, 0x4f, 0x03, 0xbd, 0x82, 0x6b, 0x88, 0x3a,
  0xc4, 0x36, 0x89, 0xbc, 0x36, 0x9f, 0x4c, 0xbd, 0xdd, 0x65, 0xba, 0xbd,
  0x33, 0xf3, 0x9b, 0xbd, 0x5f, 0x87, 0xee, 0xbd, 0x62, 0xc6, 0x19, 0x3d,
  0x43, 0x51, 0x5d, 0x3d, 0xa5, 0xc0, 0x98, 0x3d, 0xea, 0x2b, 0x8e, 0xbe,
  0xde, 0x65, 0x5a, 0xbe, 0x3f, 0x9d, 0x86, 0x3e, 0xdc, 0x0f, 0x9b, 0x3c,
  0xcf, 0x58, 0x24, 0xbc, 0xab, 0xd5, 0xb7, 0xbc, 0x76, 0xf5, 0xfe, 0x3c,
  0x2b, 0x38, 0x58, 0x3e, 0x92, 0x0f, 0xac, 0x3c, 0x20, 0x8c, 0x84, 0x3e,
  0x29, 0x97, 0xed, 0x3b, 0x96, 0x88, 0x6e, 0xbe, 0x05, 0x7d, 0x39, 0x3d,
  0x2c, 0x57, 0xb4, 0x3c, 0x1b, 0xeb, 0x38, 0xbe, 0xe3, 0xad, 0x91, 0xbd,
  0x2c, 0x82, 0xa6, 0xbe, 0x88, 0xc8, 0x95, 0xbe, 0x63, 0xa2, 0x50, 0xbc,
  0x8a, 0x7a, 0x09, 0x3d, 0x11, 0x88, 0x9a, 0x3d, 0xbd, 0x67, 0x29, 0x3d,
  0x91, 0x3a, 0xe2, 0x3b, 0x6a, 0xfc, 0x0b, 0x3d, 0x99, 0xf1, 0x01, 0x3e,
  0x49, 0x0e, 0x9b, 0x3e, 0x4b, 0x3c, 0xf1, 0xbd, 0x9c, 0x1c, 0x60, 0xbe,
  0xf6, 0xf3, 0x1d, 0xbe, 0xf6, 0x5f, 0xbc, 0x3d, 0x79, 0xf1, 0x96, 0xbe,
  0x0c, 0x5d, 0xb5, 0x3b, 0x27, 0xca, 0x98, 0xbe, 0x6c, 0x48, 0x3f, 0xbe,
  0x5c, 0xe7, 0x7a, 0xbc, 0x88, 0xaf, 0x26, 0x3d, 0xbd, 0x34, 0x60, 0x3d,
  0x84, 0x1e, 0x1d, 0xbd, 0x39, 0x3b, 0x8b, 0x3d, 0xa6, 0x40, 0xdb, 0xbd,
  0xca, 0xbf, 0x1a, 0xbe, 0x0e, 0x36, 0x04, 0x3e, 0xb7, 0xa2, 0x15, 0xbe,
  0xa5, 0xd6, 0x6f, 0xbe, 0xef, 0x0b, 0xdb, 0x3a, 0xb1, 0x7d, 0x7d, 0x3d,
  0x79, 0xcf, 0xb0, 0xbd, 0x3b, 0xa5, 0xf2, 0x3b, 0x67, 0x78, 0x9e, 0xbe,
  0x2f, 0x23, 0xc3, 0xbd, 0x04, 0x11, 0x03, 0x3e, 0x83, 0xa5, 0x22, 0xbd,
  0x5f, 0x01, 0xfa, 0xbd, 0x90, 0xf6, 0x27, 0x3d, 0x94, 0x9b, 0x76, 0xbd,
  0xc5, 0x21, 0xfc, 0x3d, 0xa7, 0xf4, 0x4a, 0xbe, 0x96, 0x89, 0x84, 0x3e,
  0x66, 0xf1, 0x8b, 0xbc, 0x44, 0x58, 0x2f, 0xbd, 0x4d, 0x2f, 0x02, 0xbe,
  0x38, 0xe7, 0xc3, 0xbd, 0x89, 0xa5, 0xe0, 0xbe, 0xd0, 0xaa, 0x6a, 0xbe,
  0x01, 0xc2, 0x9e, 0xbd, 0x5e, 0x8a, 0x91, 0xbd, 0xaa, 0xaf, 0x2c, 0x3d,
  0x96, 0xb3, 0x86, 0xbe, 0x97, 0x8a, 0xf6, 0x3e, 0x97, 0xa5, 0x4e, 0xbe,
  0xa4, 0x16, 0x9f, 0x3c, 0xa6, 0x98, 0xed, 0xbd, 0x59, 0xe3, 0xf5, 0x3d,
  0x1b, 0x84, 0xa3, 0x3e, 0x12, 0x3b, 0x7a, 0xbe, 0x47, 0x83, 0x80, 0x3d,
  0x34, 0xc9, 0xc6, 0x3d, 0xfe, 0x34, 0x70, 0xbd, 0xe2, 0xaf, 0xbd, 0xbd,
  0xd0, 0x6e, 0x51, 0xbe, 0xa0, 0x1e, 0x27, 0xbb, 0x31, 0xfd, 0x7d, 0xbe,
  0xf9, 0xf4, 0x29, 0x3e, 0x25, 0x08, 0x21, 0xbe, 0xa6, 0x88, 0x79, 0x3d,
  0x3a, 0x60, 0x8f, 0x3c, 0x32, 0x48, 0x98, 0x3d, 0x67, 0x49, 0x0e, 0x3e,
  0xa3, 0xa2, 0x87, 0xbe, 0x7a, 0xa0, 0xf5, 0x3e, 0xd4, 0x90, 0xd9, 0xbc,
  0x31, 0x6d, 0x93, 0x3d, 0xae, 0x04, 0x66, 0xbe, 0x04, 0xf9, 0x9c, 0x3d,
  0x86, 0x80, 0x16, 0xbe, 0xca, 0x34, 0xe9, 0xbd, 0x58, 0x2c, 0x12, 0xbd,
  0xc9, 0xf8, 0x32, 0xbe, 0x94, 0xb2, 0x0c, 0x3e, 0x53, 0xac, 0x28, 0xbe,
  0x5e, 0xcb, 0x61, 0xbe, 0x6a, 0x20, 0x8a, 0xbe, 0xd3, 0xa3, 0x26, 0x3d,
  0xc0, 0x54, 0xbd, 0x3c, 0xb1, 0x9f, 0x79, 0x3d, 0xb3, 0xec, 0x20, 0x3e,
  0x99, 0x55, 0x84, 0xbe, 0xbb, 0x82, 0x82, 0xbc, 0xbb, 0xdb, 0x0b, 0xbd,
  0x14, 0xcd, 0x03, 0xbe, 0x2c, 0x90, 0xc2, 0xbd, 0x64, 0x00, 0x73, 0x3e,
  0x5a, 0xd7, 0x27, 0x3d, 0x4b, 0xc3, 0x48, 0xbc, 0xb1, 0x32, 0x8b, 0xbc,
  0x4c, 0x6a, 0x13, 0xbe, 0xac, 0xd0, 0x92, 0xbd, 0x57, 0xc3, 0x80, 0x3b,
  0xb6, 0x2d, 0x1f, 0xbc, 0x0f, 0xab, 0x7e, 0x3d, 0x06, 0x28, 0xd9, 0xbc,
  0xd7, 0x9f, 0xe6, 0x3d, 0x72, 0xd5, 0x1e, 0xbe, 0x2d, 0x01, 0xf9, 0xbb,
  0xa4, 0xc2, 0x91, 0xbc, 0x6c, 0xce, 0x07, 0x3d, 0x0e, 0xc9, 0x26, 0xbe,
  0xc3, 0xd2, 0x65, 0x3c, 0xbf, 0xf5, 0x2d, 0xbc, 0xfc, 0xef, 0x62, 0x3d,
  0xfc, 0xb4, 0x6f, 0x3d, 0x2f, 0x18, 0x9a, 0x3c, 0x23, 0x6b, 0x6f, 0xbc,
  0xbd, 0x5e, 0xab, 0xbd, 0x7d, 0x25, 0x73, 0xbd, 0x4a, 0x27, 0x12, 0xbd,
  0x02, 0x3b, 0x91, 0x3d, 0x18, 0x62, 0x2d, 0x3e, 0x46, 0x36, 0xc6, 0xbd,
  0x3a, 0x42, 0x4f, 0xbe, 0x62, 0xab, 0xab, 0x3d, 0xfd, 0x5f, 0x3e, 0x3e,
  0x92, 0x24, 0x7f, 0xbe, 0x10, 0x09, 0xa0, 0xbd, 0x79, 0xf0, 0x1b, 0xbe,
  0x8e, 0x45, 0xe8, 0xbd, 0xeb, 0xd6, 0x90, 0xbc, 0x80, 0xe5, 0x92, 0xbb,
  0xee, 0xf3, 0x81, 0x3d, 0xaf, 0xa3, 0x45, 0xbe, 0x89, 0x64, 0x83, 0x3d,
  0x68, 0xb4, 0x20, 0x3d, 0x92, 0x47, 0x8d, 0x37, 0x53, 0xb0, 0x8c, 0x3d,
  0xf7, 0x2b, 0xcf, 0xbe, 0xd0, 0x54, 0xcd, 0x3a, 0xc4, 0xdb, 0x97, 0xbb,
  0x73, 0xd5, 0x23, 0xbe, 0x58, 0x3a, 0x37, 0xbd, 0xd9, 0xdf, 0x7b, 0xbe,
  0x68, 0x9a, 0xea, 0xbd, 0xbe, 0x2e, 0xf3, 0xbd, 0xe8, 0x96, 0x6a, 0x3e,
  0x8c, 0xf4, 0xa1, 0xbc, 0xe8, 0x98, 0x41, 0xbd, 0x5f, 0xfe, 0x58, 0x3e,
  0xf8, 0xbc, 0x4f, 0xbb, 0xac, 0xa2, 0x5d, 0x3e, 0x50, 0x77, 0x1a, 0x3e,
  0xc9, 0x19, 0xa0, 0xbe, 0xe2, 0x4f, 0xf2, 0x3d, 0x1e, 0xdd, 0xf0, 0x3d,
  0x46, 0x09, 0xf0, 0xbd, 0xca, 0x3a, 0x65, 0x3e, 0xe0, 0x89, 0x0e, 0x3c,
  0xf8, 0x78, 0xbd, 0x3e, 0xaf, 0x69, 0x50, 0x3e, 0x81, 0x9a, 0x20, 0x3d,
  0xfa, 0xff, 0xfc, 0xbd, 0xd6, 0x28, 0xe9, 0xbd, 0x9f, 0x8e, 0xb5, 0x3d,
  0xf8, 0xce, 0x29, 0x3e, 0xad, 0xf0, 0xf8, 0xbc, 0xbc, 0x97, 0xad, 0xbd,
  0x3e, 0x99, 0x3b, 0xbe, 0x27, 0xf1, 0x85, 0xbd, 0x1d, 0xb5, 0xe1, 0xbe,
  0x91, 0xab, 0xb6, 0xbe, 0x9a, 0x08, 0x11, 0x3e, 0x98, 0xb5, 0x23, 0xbd,
  0xe8, 0x49, 0xc8, 0x3d, 0xb0, 0x9e, 0x6a, 0xbe, 0xde, 0xed, 0x9a, 0xbe,
  0x53, 0x9f, 0x44, 0xbd, 0x45, 0x2c, 0xe8, 0xbc, 0x7a, 0x7c, 0x8b, 0xbc,
  0xc1, 0xd1, 0x1b, 0xbd, 0x88, 0xad, 0x26, 0x3e, 0xe5, 0x4e, 0x21, 0x3d,
  0xad, 0x4b, 0x74, 0xbd, 0x51, 0x78, 0x19, 0xbe, 0xa1, 0x07, 0x85, 0xbe,
  0x04, 0x62, 0x9f, 0xbd, 0xa9, 0x38, 0xd7, 0xbe, 0x64, 0xee, 0xa4, 0xbe,
  0x8a, 0x0c, 0x4d, 0xbe, 0x1b, 0x4d, 0xb3, 0xbe, 0x04, 0xc2, 0x41, 0xbe,
  0x9b, 0x55, 0xd5, 0xbe, 0x62, 0x67, 0x08, 0xbf, 0x84, 0xf9, 0xe8, 0x3d,
  0xbb, 0xec, 0x09, 0xbd, 0x55, 0xf3, 0xa5, 0x3d, 0xe4, 0x24, 0x11, 0x3d,
  0x8f, 0xc6, 0x69, 0x3c, 0x56, 0xbe, 0x42, 0xbd, 0x30, 0xf6, 0x3c, 0xbe,
  0xfc, 0x6b, 0x10, 0xbe, 0x88, 0xd3, 0x13, 0xbe, 0xfb, 0xd3, 0xab, 0xbe,
  0xdd, 0x65, 0xca, 0xbe, 0x57, 0x2d, 0xcf, 0xbd, 0x49, 0x31, 0xa6, 0xbe,
  0x35, 0x0b, 0xd1, 0x3c, 0x7e, 0xd9, 0xd2, 0xbe, 0xbb, 0x3b, 0x31, 0xbe,
  0xb2, 0xf0, 0x84, 0xbe, 0x3b, 0x47, 0xad, 0xbd, 0x4a, 0x7b, 0x7e, 0xbe,
  0x72, 0xd6, 0x03, 0x3e, 0x64, 0xc5, 0x59, 0x3d, 0xe5, 0x82, 0xcc, 0xbc,
  0xde, 0x0f, 0xed, 0x3b, 0x74, 0xe6, 0x65, 0x3c, 0xa5, 0x5d, 0x6d, 0xbc,
  0x99, 0x4d, 0xe0, 0xbc, 0x0e, 0xcb, 0xe5, 0xbd, 0x32, 0xf5, 0x91, 0x3b,
  0x95, 0x21, 0xa6, 0xbe, 0x48, 0x35, 0x5b, 0x3e, 0x33, 0x55, 0x08, 0xbe,
  0x46, 0xca, 0x40, 0x3e, 0xb0, 0xe6, 0x30, 0xbe, 0x91, 0xa4, 0x9d, 0xbd,
  0x8e, 0x18, 0xfc, 0xbd, 0x01, 0x36, 0x3f, 0x3e, 0xab, 0x7b, 0x98, 0x3c,
  0x2f, 0x53, 0x0e, 0x3d, 0xa2, 0x5d, 0x13, 0x3e, 0xce, 0xa3, 0xd6, 0xbe,
  0x50, 0x59, 0x90, 0x3d, 0x0d, 0xe7, 0x47, 0x3c, 0x91, 0x47, 0x62, 0xbd,
  0xd7, 0x4a, 0x3e, 0x3d, 0xb5, 0xdd, 0x3b, 0xbd, 0x56, 0xd0, 0x74, 0x3d,
  0xe4, 0x91, 0xa1, 0xbd, 0x8e, 0xc5, 0x9e, 0x3c, 0xd7, 0x72, 0x5b, 0xbe,
  0x9b, 0x89, 0xf4, 0xbd, 0x21, 0x21, 0xbf, 0x3e, 0x0f, 0x33, 0x56, 0xbd,
  0x63, 0xca, 0xc0, 0xbb, 0xb8, 0xe2, 0x4a, 0x3d, 0xe9, 0x69, 0x8b, 0x3d,
  0xba, 0xc3, 0xb6, 0x3d, 0x82, 0x49, 0xb1, 0x3d, 0x57, 0x58, 0x9d, 0x3d,
  0xe4, 0x55, 0xa2, 0xbd, 0x1a, 0xd2, 0x4a, 0x3d, 0x14, 0x39, 0x0d, 0xbd,
  0xdb, 0x9f, 0x15, 0x3d, 0x15, 0x11, 0xfa, 0x3c, 0x56, 0x29, 0x0c, 0x3e,
  0x19, 0x0d, 0xcd, 0xbc, 0xa8, 0xfb, 0xe1, 0xbb, 0x8f, 0x7f, 0x3b, 0x3e,
  0xfb, 0x1f, 0x05, 0x3e, 0x22, 0xd7, 0x84, 0xbe, 0x97, 0x9f, 0xa0, 0xbd,
  0x46, 0x25, 0x05, 0x3e, 0xf7, 0xc0, 0xd4, 0x3e, 0x96, 0x42, 0x05, 0xbe,
  0x06, 0xe7, 0x15, 0xbe, 0xd7, 0x81, 0xdb, 0xbd, 0xbe, 0x59, 0x27, 0xbd,
  0x53, 0xcf, 0x9a, 0xbc, 0x70, 0xb9, 0x92, 0xbe, 0x91, 0x78, 0x14, 0x3e,
  0x98, 0xfe, 0xfc, 0x3d, 0x63, 0x6b, 0xdb, 0xbd, 0x7f, 0x89, 0x66, 0xbe,
  0x02, 0x55, 0x5d, 0x3d, 0x0f, 0x70, 0x4f, 0xbe, 0x7f, 0x9b, 0x12, 0xbd,
  0xbc, 0x41, 0x13, 0x3e, 0x88, 0xcf, 0x39, 0x3e, 0x71, 0xc6, 0xd7, 0x3e,
  0xcb, 0x73, 0x42, 0xbe, 0x42, 0xa7, 0x0a, 0x3e, 0xe3, 0x41, 0xbd, 0xbd,
  0xfe, 0xd2, 0x36, 0xbe, 0x90, 0xd3, 0x0f, 0xbd, 0x3b, 0x75, 0x51, 0xbd,
  0x4b, 0x52, 0x33, 0x3e, 0x8a, 0x85, 0xd4, 0xbd, 0x5e, 0x93, 0x96, 0x3d,
  0xef, 0x50, 0x37, 0xbe, 0xcf, 0x1b, 0x97, 0xbe, 0xc1, 0x8d, 0x80, 0x3d,
  0xb5, 0x95, 0x6a, 0xbe, 0x1a, 0x0d, 0xdd, 0x3d, 0x40, 0x37, 0xbe, 0x3e,
  0x97, 0x92, 0x7a, 0x3e, 0x1d, 0xbd, 0xbf, 0xbd, 0xee, 0x33, 0x99, 0x3d,
  0x96, 0x73, 0x51, 0x3d, 0x39, 0xda, 0x90, 0x3c, 0x12, 0x2b, 0x47, 0x3d,
  0x52, 0xfd, 0x95, 0x3a, 0x9d, 0xf4, 0x9c, 0x3e, 0x77, 0x00, 0xb0, 0x3b,
  0x50, 0x59, 0x17, 0xbe, 0xe8, 0xb5, 0xd5, 0xbc, 0x04, 0x82, 0x82, 0x3e,
  0xfe, 0x9b, 0x67, 0xbe, 0x0d, 0x21, 0x81, 0xbe, 0xde, 0x5f, 0xeb, 0xbb,
  0xb9, 0x0c, 0xc8, 0x3e, 0x62, 0xe6, 0x8e, 0xbc, 0x03, 0x62, 0x31, 0xbe,
  0xed, 0x97, 0x80, 0x3e, 0xa9, 0x99, 0x36, 0x3e, 0x7c, 0x26, 0x41, 0x3c,
  0xd7, 0x08, 0x61, 0x3e, 0x72, 0x96, 0x77, 0x3d, 0x12, 0x69, 0x86, 0x3e,
  0x69, 0x3c, 0x3b, 0x3e, 0xe2, 0xdc, 0xc9, 0x3c, 0xa0, 0x63, 0xe7, 0xbd,
  0x45, 0xc5, 0xb8, 0xbd, 0x3c, 0xb4, 0x1b, 0xbe, 0xd9, 0x58, 0x8a, 0xbd,
  0xc2, 0x05, 0xe9, 0x3b, 0xd7, 0x0b, 0xc6, 0x3d, 0x97, 0xdf, 0x9f, 0xbc,
  0xcc, 0x97, 0x83, 0xbe, 0x14, 0x4f, 0xd4, 0x3d, 0x02, 0xb9, 0x80, 0xbe,
  0xef, 0x61, 0xe6, 0xbd, 0x6c, 0xbe, 0x91, 0x3d, 0x03, 0x78, 0x6a, 0xbd,
  0xcf, 0x1b, 0x8d, 0x3e, 0xf2, 0x10, 0x7a, 0x3d, 0x43, 0x8c, 0x05, 0xbe,
  0x8c, 0x8e, 0x42, 0xbe, 0xf4, 0x7f, 0xa4, 0x3d, 0x65, 0xa6, 0x10, 0x3e,
  0x53, 0x21, 0xab, 0xbe, 0xcf, 0xdb, 0x8f, 0xba, 0xa9, 0x57, 0x61, 0x3e,
  0x60, 0x5a, 0xbc, 0x3e, 0x3d, 0xd4, 0x31, 0xbe, 0x26, 0x13, 0x20, 0xbe,
  0x9c, 0x13, 0xbd, 0xbd, 0xcc, 0xf2, 0x0d, 0x3d, 0x06, 0x66, 0xa6, 0xbc,
  0xb7, 0x49, 0xc4, 0xbc, 0x4c, 0xd1, 0x11, 0x3e, 0xad, 0x89, 0x66, 0x3d,
  0x16, 0x12, 0xa9, 0xbe, 0x48, 0xa2, 0x34, 0xbe, 0x40, 0x4e, 0x20, 0xbd,
  0xb2, 0x45, 0x2c, 0x3e, 0xc4, 0x72, 0x8f, 0xbe, 0xfb, 0x42, 0xaf, 0x3d,
  0x76, 0x13, 0x2c, 0x3e, 0xfc, 0x99, 0x2d, 0xbd, 0x0c, 0x29, 0x98, 0xbe,
  0x4c, 0x3d, 0x20, 0xbe, 0xc8, 0x05, 0xa3, 0xbd, 0x5d, 0x3d, 0x09, 0x3d,
  0x06, 0xff, 0x9f, 0xbd, 0x21, 0xec, 0x32, 0xbe, 0x58, 0xe9, 0x6f, 0x3e,
  0x83, 0x06, 0x50, 0xbe, 0x36, 0x7a, 0x61, 0xbe, 0xc4, 0xfc, 0x8a, 0xbe,
  0x95, 0xc2, 0x9e, 0x3d, 0xbb, 0x03, 0x87, 0xbd, 0xb8, 0x21, 0x1b, 0xbe,
  0xd8, 0x6e, 0x38, 0xbb, 0x00, 0x05, 0x8d, 0xbe, 0xc7, 0x8b, 0x62, 0xbb,
  0xe0, 0xae, 0xb6, 0xbd, 0x42, 0xcd, 0x39, 0xbe, 0x04, 0xb1, 0x20, 0xbe,
  0x90, 0x5c, 0x78, 0xbe, 0x56, 0x07, 0xdd, 0xbd, 0xb1, 0x34, 0xd7, 0x3b,
  0xe9, 0xf2, 0x53, 0x3d, 0xa3, 0xfc, 0xb9, 0x3d, 0xc8, 0xae, 0x53, 0xbd,
  0x36, 0xf8, 0x1f, 0xbe, 0x29, 0x2c, 0xa4, 0x3d, 0x27, 0x88, 0xa4, 0xbb,
  0x2d, 0x03, 0x52, 0xbe, 0xaf, 0xc7, 0xdd, 0xbd, 0x09, 0x4a, 0xba, 0x3d,
  0x4d, 0x0d, 0xf7, 0xbd, 0x0a, 0x22, 0xd7, 0x3c, 0xc4, 0x38, 0x5a, 0xbd,
  0xee, 0x4a, 0x7b, 0xbe, 0x3d, 0xa3, 0x70, 0xbe, 0x32, 0x0f, 0x0b, 0x3e,
  0x53, 0xc7, 0x70, 0xbe, 0xd3, 0xe5, 0x79, 0xbd, 0x6f, 0xbc, 0x4b, 0xbd,
  0xdc, 0xd0, 0xfd, 0xbd, 0xbb, 0x6b, 0x78, 0xbe, 0xbc, 0x11, 0x1e, 0xbe,
  0xbe, 0x52, 0x3d, 0x3d, 0xa3, 0x71, 0x2d, 0xbe, 0x9f, 0x31, 0x56, 0xbe,
  0x68, 0xfb, 0xff, 0xbc, 0x13, 0xa6, 0x33, 0x3e, 0x01, 0xf7, 0xda, 0xbd,
  0xe4, 0x47, 0x98, 0x3c, 0x3f, 0xe8, 0x1d, 0xbe, 0x9a, 0x76, 0x28, 0xbe,
  0xf4, 0x0d, 0xe8, 0xbc, 0xe4, 0xa6, 0xf6, 0xbc, 0x9b, 0x7b, 0xea, 0x3d,
  0xde, 0xd7, 0x34, 0x3d, 0x11, 0xd7, 0x1d, 0xbe, 0xdc, 0xe8, 0x67, 0xbe,
  0xce, 0xfa, 0x4c, 0xbe, 0x9f, 0x51, 0xc7, 0x3d, 0x7a, 0xa0, 0x4f, 0xbc,
  0x07, 0xd1, 0x3a, 0xbe, 0x93, 0x44, 0x6c, 0xbe, 0x80, 0x8a, 0x30, 0xbe,
  0x01, 0x53, 0x25, 0xbe, 0xd9, 0x7a, 0x89, 0xbe, 0x59, 0xb2, 0xfb, 0x3d,
  0xeb, 0x17, 0x81, 0xbc, 0xdd, 0x35, 0x1b, 0x3d, 0x77, 0x33, 0xfa, 0x3d,
  0xb9, 0x99, 0x1f, 0x3e, 0xe6, 0x53, 0xa9, 0x3d, 0x74, 0x6e, 0x69, 0xbd,
  0x57, 0xf2, 0x89, 0xbe, 0x02, 0xf5, 0xfe, 0xbd, 0x93, 0x0e, 0xc0, 0xbd,
  0x16, 0x5f, 0x7e, 0x3c, 0x88, 0xe6, 0x29, 0xbe, 0x81, 0xaa, 0xaa, 0x3d,
  0x1e, 0x7b, 0x03, 0x3e, 0x90, 0xa2, 0x09, 0x3e, 0xf0, 0x4b, 0x37, 0xbe,
  0x57, 0x07, 0x7f, 0xbe, 0x20, 0x56, 0x2d, 0xbe, 0x17, 0xab, 0x7f, 0x3d,
  0x02, 0xe8, 0x19, 0xbd, 0x52, 0xac, 0x67, 0xbe, 0x4d, 0xfb, 0x62, 0xbe,
  0xf8, 0x99, 0xdd, 0xbd, 0x23, 0x36, 0x0a, 0xbe, 0x4a, 0xf7, 0xa8, 0x3d,
  0x15, 0xfa, 0x69, 0x3b, 0xde, 0x42, 0xf5, 0x3c, 0x00, 0xdd, 0x00, 0x3d,
  0x6e, 0x05, 0x98, 0xbd, 0x32, 0x0f, 0x40, 0x3e, 0x63, 0xa7, 0x66, 0xbe,
  0x3c, 0x99, 0x20, 0xbe, 0xda, 0xbc, 0x6c, 0xbe, 0x11, 0x17, 0x66, 0xbe,
  0x66, 0x1e, 0xca, 0x3d, 0xa0, 0x26, 0x30, 0xbe, 0x04, 0xdb, 0x74, 0xbd,
  0x30, 0x08, 0x29, 0xbe, 0x5e, 0x91, 0x32, 0xbe, 0x7d, 0x00, 0x87, 0xbe,
  0x92, 0x15, 0x2b, 0xbd, 0xd4, 0x2a, 0x30, 0x3e, 0x9e, 0x56, 0xb8, 0xbd,
  0xf8, 0x12, 0x80, 0x3d, 0x9f, 0x2f, 0xb9, 0xbd, 0xb4, 0xab, 0x92, 0xbe,
  0x24, 0xf9, 0x19, 0xbd, 0x38, 0x41, 0x14, 0xbe, 0x91, 0xfa, 0x64, 0xbe,
  0xbb, 0xaa, 0xb3, 0xbd, 0xdb, 0x79, 0xb9, 0x3d, 0x30, 0xe8, 0x6d, 0xbe,
  0x06, 0xd9, 0xd4, 0xbd, 0x5d, 0xe5, 0xa2, 0xbd, 0x2a, 0x12, 0x15, 0xbc,
  0x5e, 0x68, 0xf4, 0xbd, 0xd9, 0xe0, 0x1e, 0xbe, 0x4c, 0xe0, 0xa8, 0xbd,
  0x46, 0xfe, 0xff, 0xff, 0x10, 0x00, 0x00, 0x00, 0x05, 0x00, 0x00, 0x00,
  0x14, 0x00, 0x00, 0x00, 0x2c, 0x00, 0x00, 0x00, 0x02, 0x00, 0x00, 0x00,
  0x10, 0x00, 0x00, 0x00, 0x70, 0x00, 0x00, 0x00, 0x17, 0x00, 0x00, 0x00,
  0x73, 0x65, 0x71, 0x75, 0x65, 0x6e, 0x74, 0x69, 0x61, 0x6c, 0x2f, 0x64,
  0x65, 0x6e, 0x73, 0x65, 0x2f, 0x4d, 0x61, 0x74, 0x4d, 0x75, 0x6c, 0x00,
  0x34, 0xfe, 0xff, 0xff, 0x2a, 0xff, 0xff, 0xff, 0x04, 0x00, 0x00, 0x00,
  0x08, 0x00, 0x00, 0x00, 0xff, 0xff, 0xff, 0xff, 0x70, 0x00, 0x00, 0x00,
  0x00, 0x00, 0x0e, 0x00, 0x18, 0x00, 0x08, 0x00, 0x07, 0x00, 0x0c, 0x00,
  0x10, 0x00, 0x14, 0x00, 0x0e, 0x00, 0x00, 0x00, 0x00, 0x00, 0x00, 0x02,
  0x10, 0x00, 0x00, 0x00, 0x04, 0x00, 0x00, 0x00, 0x10, 0x00, 0x00, 0x00,
  0x2c, 0x00, 0x00, 0x00, 0x01, 0x00, 0x00, 0x00, 0x02, 0x00, 0x00, 0x00,
  0x18, 0x00, 0x00, 0x00, 0x73, 0x65, 0x71, 0x75, 0x65, 0x6e, 0x74, 0x69,
  0x61, 0x6c, 0x2f, 0x66, 0x6c, 0x61, 0x74, 0x74, 0x65, 0x6e, 0x2f, 0x43,
  0x6f, 0x6e, 0x73, 0x74, 0x00, 0x00, 0x00, 0x00, 0x9c, 0xfe, 0xff, 0xff,
  0x92, 0xff, 0xff, 0xff, 0x04, 0x00, 0x00, 0x00, 0x10, 0x00, 0x00, 0x00,
  0x0b, 0x4c, 0x93, 0xbe, 0x9e, 0xa6, 0x86, 0xbf, 0x31, 0x59, 0xe6, 0xbe,
  0x07, 0xe8, 0xac, 0x3e, 0x0a, 0xff, 0xff, 0xff, 0x10, 0x00, 0x00, 0x00,
  0x03, 0x00, 0x00, 0x00, 0x10, 0x00, 0x00, 0x00, 0x3c, 0x00, 0x00, 0x00,
  0x01, 0x00, 0x00, 0x00, 0x04, 0x00, 0x00, 0x00, 0x29, 0x00, 0x00, 0x00,
  0x73, 0x65, 0x71, 0x75, 0x65, 0x6e, 0x74, 0x69, 0x61, 0x6c, 0x2f, 0x64,
  0x65, 0x6e, 0x73, 0x65, 0x5f, 0x31, 0x2f, 0x42, 0x69, 0x61, 0x73, 0x41,
  0x64, 0x64, 0x2f, 0x52, 0x65, 0x61, 0x64, 0x56, 0x61, 0x72, 0x69, 0x61,
  0x62, 0x6c, 0x65, 0x4f, 0x70, 0x00, 0x00, 0x00, 0x60, 0xff, 0xff, 0xff,
  0x00, 0x00, 0x06, 0x00, 0x08, 0x00, 0x04, 0x00, 0x06, 0x00, 0x00, 0x00,
  0x04, 0x00, 0x00, 0x00, 0x40, 0x00, 0x00, 0x00, 0xe6, 0x18, 0xc6, 0xbe,
  0xf7, 0x2c, 0x43, 0xbf, 0xa7, 0x0e, 0xa9, 0x3f, 0x14, 0xd5, 0x01, 0xbf,
  0x4e, 0x50, 0xeb, 0xbf, 0xdf, 0x18, 0x6b, 0x40, 0xbd, 0x5d, 0x84, 0xbe,
  0x93, 0xe0, 0x7c, 0x40, 0x7b, 0x16, 0x88, 0xbf, 0xb4, 0x3a, 0x9d, 0xbf,
  0xbb, 0xb8, 0x5a, 0x40, 0xdb, 0xe5, 0x2c, 0x3f, 0xbd, 0x7f, 0x76, 0x3d,
  0x03, 0x82, 0xab, 0xbe, 0xb6, 0x4d, 0xd4, 0xbc, 0x23, 0xd2, 0x6a, 0xbe,
  0xae, 0xff, 0xff, 0xff, 0x10, 0x00, 0x00, 0x00, 0x02, 0x00, 0x00, 0x00,
  0x10, 0x00, 0x00, 0x00, 0x3c, 0x00, 0x00, 0x00, 0x01, 0x00, 0x00, 0x00,
  0x10, 0x00, 0x00, 0x00, 0x27, 0x00, 0x00, 0x00, 0x73, 0x65, 0x71, 0x75,
  0x65, 0x6e, 0x74, 0x69, 0x61, 0x6c, 0x2f, 0x64, 0x65, 0x6e, 0x73, 0x65,
  0x2f, 0x42, 0x69, 0x61, 0x73, 0x41, 0x64, 0x64, 0x2f, 0x52, 0x65, 0x61,
  0x64, 0x56, 0x61, 0x72, 0x69, 0x61, 0x62, 0x6c, 0x65, 0x4f, 0x70, 0x00,
  0x04, 0x00, 0x06, 0x00, 0x04, 0x00, 0x00, 0x00, 0x00, 0x00, 0x0e, 0x00,
  0x14, 0x00, 0x04, 0x00, 0x00, 0x00, 0x08, 0x00, 0x0c, 0x00, 0x10, 0x00,
  0x0e, 0x00, 0x00, 0x00, 0x10, 0x00, 0x00, 0x00, 0x01, 0x00, 0x00, 0x00,
  0x1c, 0x00, 0x00, 0x00, 0x2c, 0x00, 0x00, 0x00, 0x04, 0x00, 0x00, 0x00,
  0x01, 0x00, 0x00, 0x00, 0x40, 0x00, 0x00, 0x00, 0x03, 0x00, 0x00, 0x00,
  0x01, 0x00, 0x00, 0x00, 0x0c, 0x00, 0x00, 0x00, 0x63, 0x6f, 0x6e, 0x76,
  0x32, 0x64, 0x5f, 0x69, 0x6e, 0x70, 0x75, 0x74, 0x00, 0x00, 0x00, 0x00,
  0xfc, 0xff, 0xff, 0xff, 0x04, 0x00, 0x04, 0x00, 0x04, 0x00, 0x00, 0x00
};


unsigned int model_tflite_len = 12316;// Fill the int in `src/model.cc` here